#version: 0.2
e r
e n
i n
Ġ a
c h
Ġ t
Ġ d
e s
Ġ s
o n
n d
i t
Ġ w
Ġt h
o r
i s
a t
i e
r e
a n
Ġ b
Ġ m
a l
a r
Ġth e
Ġ f
a s
l e
Ġ o
u n
Ġ S
Ġ h
in g
t e
Ġ in
Ġ e
i ch
Ġ p
Ġ c
u s
u r
g e
r o
l l
Ġ n
u nd
Ġ A
Ġt o
e d
t i
Ã ¼
Ġa nd
Ġ v
Ġo f
Ġ B
o m
e l
s t
en t
Ġ M
Ġ g
Ġ T
Ġ D
Ġ I
Ã ¤
u t
un g
Ġ und
e t
i c
i g
r a
i on
Ġ l
Ġ P
t er
Ġ is
Ġe in
i l
Ġb e
i m
Ġ F
Ġd er
i r
Ġd ie
Ġ W
Ġ E
Ġ z
e m
Ġ G
Ġ C
Ġ k
a m
t en
o l
er s
i d
o u
Ġ H
h r
Ġ y
u m
Ġ K
e it
u f
Ġ R
Ġ re
v e
Ġ L
o t
Ġa n
a d
o w
a b
Ã ¶
c k
b er
h e
a ch
at ion
Ġ 2
Ġf or
a nd
a y
Ġ on
en d
Ġ 1
â Ģ
es s
l y
l ich
u ch
Ġ N
s ch
d er
e in
c e
o s
Ġ V
Ã¼ r
Ġ ge
v er
i es
i er
t s
Ġ (
Ġs t
it h
g en
Ġd as
er e
Ġa l
Ġth at
Ġw h
Ġz u
in d
u l
o ur
e c
es t
Ġ r
Ġd en
Ġw ith
ti on
Ġ U
Ġy ou
Ġ im
p p
t h
Ġ un
Ġm it
ich t
i f
Ġp ro
Ġ J
Ġ it
Ġ O
i ll
a g
a k
Ġv on
o d
Ġis t
Ġ er
an n
o p
Ġs o
Ġa uf
Ġ2 0
Ġw e
Ġa s
is ch
Ġ j
Ġf Ã¼r
d en
Ġn e
ĠS t
Ã Ł
Ġa re
at e
n e
Ġv er
i k
ĠI n
h t
. .
i v
Ġ Z
in e
Ġc on
as s
or t
Ġs e
l a
Ġ or
al l
f f
i b
q u
is t
Ġc om
Ġh a
ie l
c t
Ġ -
u p
w e
Ġ âĢ
n en
Ġd es
d e
Ġ "
Ġs ch
Ġe x
Ġa t
m ent
o k
Ġ le
Ġa b
a h
i en
u g
Ġw as
Ġs ich
0 0
us t
' s
Ġw ir
Ġal s
m en
o ch
ĠS ch
l d
Ġn icht
ro m
Ġs p
b en
f or
it y
Ġy our
ĠT he
ĠA n
o st
Ġd e
Ġ es
an t
Ġa us
Ġ ch
ĠS ie
Ġm e
o g
s te
Ġein e
ar t
Ġa ll
m er
u b
a ge
k t
Ġh e
Ġd em
Ġa uch
i z
a us
Ġha ve
ung en
a p
f t
a in
te d
u d
ĠR e
om e
i p
Ġth is
Ġm an
ar d
Ġ us
i ve
h er
u re
ĠV er
a hr
Ġb y
Ġf rom
s e
s p
or e
Ġw ill
ĠS p
Ġc an
Ġs h
i al
id e
ĠT h
f er
o ut
Ġ i
Ġw er
Ã¼ ber
ic k
h en
ĠB e
Ġ20 1
Ġd ies
Ġn ot
u e
as t
Ġ 3
d u
an g
o ok
Ġa m
Ġw or
er t
Ġw ie
z e
er n
a re
en n
ĠP ro
r an
b e
es ch
ar k
a ck
a u
Ġo der
ou ld
ig ht
e ar
o ll
r u
h l
Ġwer den
ung s
Ã¶ n
Ġ Ã¼ber
ĠâĢ ĵ
ti g
Ġ um
a c
Ġ ich
s en
Ġs ind
Ġh ab
Ġbe i
ĠW e
al ly
Ġh at
o us
Ġd o
ur ch
on e
ĠU n
Ġ en
ig en
l o
Ġun s
i a
it e
2 0
ĠE r
ic e
Ġa c
e w
Ġp r
i re
Ġs ein
ĠD ie
for m
ti c
Ġcom p
Ġg o
et z
ig n
p er
Ġv or
Ġp l
r y
Ġa d
m e
ab le
is e
Ġt e
i le
Ġn ach
Ġdas s
h al
o c
Ġh as
ter n
ĠA r
ak e
Ġs ie
a il
p r
o v
h n
Ġ ent
il d
er v
g er
isch en
t z
Ġw ar
Ġb ut
âĢ Ļ
it ion
ĠL e
Ġo ut
o b
Ġwir d
in k
a v
Ġ up
at ed
o un
Ġ 4
en s
Ġr es
te l
Ġ 5
th er
n er
te ll
Ġ Y
Ġm ore
r it
T he
us s
Ġein en
Ġthe y
.. .
on g
ĠE in
a uf
os e
es e
m p
Ġthe ir
r ie
ĠD e
am e
Ġp er
ation s
on t
ing s
an ce
Ġk ann
an k
ĠT e
or d
Ġk Ã¶n
r en
ch en
Ġals o
p l
b eit
a f
Ġm y
ĠC h
ent s
im e
v en
Ġon e
r Ã¼
as e
Ġz um
Ġein er
is h
Ġ qu
Ġo ur
l ine
e k
ar y
ec t
Ġb es
ik e
re at
Ġ ro
Ġein em
ĠA l
t o
Ġab out
t ra
Ã¤ n
om m
w er
Ġg ro
Ġa pp
Ġh er
s s
te t
ier t
Ġhab en
ah l
Ġc l
Ġn och
ig h
Ġz ur
ow n
on d
Ġwor k
c tion
e p
Ġun ter
Ġin c
Ġwh ich
at er
re e
v el
Ã¤ nd
k eit
Ġn ur
an z
' t
Ġge t
Ġt ra
t w
Ġd urch
ein e
ch e
end en
Ã¶ r
i ge
Ġ1 9
ay s
ĠG e
Ġa r
er en
f Ã¼
l ie
b s
Ġ |
or s
ti m
Ã¤ t
Ġcon t
g lich
ut z
Ġs ome
Ġg en
u te
isch e
ĠH e
ge b
Ġf ind
ge l
m s
an s
Ġa ber
ĠkÃ¶n nen
ĠE n
l and
g es
Ã¤ r
h re
ĠA us
al s
Ġf e
Ġwh o
Ġme hr
Ġt ime
el t
Ġan y
g t
Ã¼ ck
Ġh is
ch n
at en
Ġof f
Ġ Ã
a z
Ġv ers
I n
Ġb et
ĠI t
ier en
) .
w o
a ft
on s
Ġne w
st en
Ġ 6
Ġy ear
Ġk n
Ġs te
ll en
ic al
Ġw ur
a ct
ch t
Ġ &
Ġb is
ad e
r ess
am p
Ġp re
ul t
Ġs u
ĠM it
Ġh el
Ġ 0
at z
end e
c ess
D ie
u al
ut sch
oun t
is s
Ġs a
ĠA b
lich en
p h
ra m
Ġth ere
h eit
tion s
Ġj ed
le d
c om
Ġn o
Ġ if
Ã¼ n
r i
ers on
l es
Ġw eit
lich e
Ġwh en
al e
f e
Ġo ther
Ġl ike
ĠF or
o in
Ġne ed
Ġd is
ĠD as
ib t
r Ã¤
ug h
Ġal le
Ġbe en
el y
Ġre c
m it
Ġa g
ver y
Ġi hr
ĠJ ahr
f l
Ġp e
ti v
y ste
ol d
Ġwh at
Ġo ver
Ġw ould
ie w
ĠA uf
at ur
or y
om men
i an
Ġ1 0
k e
ou g
Ġthe m
g an
b le
ĠP l
Ġim p
ass en
an ge
ĠS o
Ġ Â
Ġin ter
c es
ie le
Ġ 7
ol og
ĠV or
at t
Ġo p
Ġh ad
f en
Ġw ere
ol le
Ġh ow
id en
Ã¤ hr
aus e
ĠD er
Ġm ach
o ol
t ing
a ce
form ation
Ġit s
Ġj ust
re d
b ar
Ġs c
in n
) ,
y s
Ġ 8
ĠUn ter
op le
Ġw enn
le ich
Ġin d
ne h
al t
und en
i o
r ing
T h
ir st
l os
l er
at ing
du c
at es
ie d
re ich
m al
Ġv iel
sch aft
Ġin to
w n
Ã¶ glich
Ġso ll
Ġ20 0
Ġm ay
etz t
un k
f ter
Â Ń
at h
ab e
er m
der n
ti ve
f ahr
el d
g r
Ġp ar
l in
ĠTh is
u ll
o ck
Ġhel p
Ġth an
Ġ ra
om p
o od
e ll
et h
u en
Ġ 9
Ġb er
ÃŁ en
l ic
Ġ Q
Ġin s
y p
Ġpro v
z eit
Ġd ann
Ġpe ople
Ġg es
te il
Ġus e
Ġt r
d ition
Ġd ar
id er
Ġbe c
20 1
x t
Ġm ake
am il
f ul
or k
o ve
ur n
Ġse hr
ĠN e
b st
ĠM ar
Ã¤ l
k en
ation al
i ous
Ġp os
Ġd a
in o
Ġth ro
Ġs erv
Ġwur de
ĠB er
Ġm ost
. "
ĠB l
n is
t t
Ġwe ll
Ġkn ow
o ff
ĠO n
ot h
Ġcon s
Ġl ook
Ġwie der
Ã¤ ch
ĠO r
z en
em ber
Ġex p
re is
Ġre g
in ess
ĠZ eit
Ġd u
ĠG r
Ġs el
ĠS h
Ġz w
Ġon ly
Ġh ier
Ġinc l
ĠS e
Ġl ie
Ġb est
Ġf irst
ĠN ach
re i
Ġdies e
ment s
if e
Ġim mer
ar beit
ĠE s
o ver
2 1
Ġg ibt
Ġ /
is ter
an c
k l
st and
Ġs uch
Ġe very
Ġre p
Ġg ut
w w
ic es
Ġp h
iv ers
Ġd if
Ġo b
Ġthro ugh
Ġon line
it ies
Ġb u
ĠW ir
Ġver y
s h
Ġsch on
Ġsa id
1 0
Ġb ack
u es
o und
ĠF l
f ach
i ent
ĠA nd
Ġth ese
yste m
u er
s el
ow er
en e
00 0
on n
ĠF ra
Ġsu pp
us iness
ĠY ou
a x
h ne
r ic
âĢ ¦
d ay
ÃŁ e
ĠSp iel
an y
f ol
oug h
ig er
a ff
ark et
a w
ĠI hr
ul ar
i x
ĠE ur
ĠE x
a ut
ĠW h
sch en
ost en
ar n
Ġund er
ĠH er
b ur
in der
Ġst ud
in s
ĠN ew
at ive
st er
ĠM en
Ġgo od
ers ch
Ġas s
Ġs ec
as h
Ġge w
Ġv om
S t
ĠF e
Ġuns er
Ġin v
g ram
ĠP r
el s
Ġp art
Ġac c
f all
ĠM e
Ġf in
ib le
Ġcom m
Ġpl ay
h nen
ĠT ra
o hn
u ÃŁ
is ten
Ġman y
E R
Ġs ow
l ing
ĠI m
hal ten
Ġh in
Ġt wo
iz e
p ro
it al
Ġc ould
at ch
Ġh and
ion s
el le
at s
o y
eit e
ien ce
it t
v iew
i um
ich tig
Ġw el
ti k
Ġhab e
Ġe v
Ġs he
ti gen
Ġe ff
Ġ '
ro und
Ġb el
Ġg r
Ġd own
for e
Ġw ay
ak ing
neh men
it z
al k
Ġd am
ag es
ti f
Ġg er
Ġs ol
ess en
Ġe tw
a ir
Ġm in
Ġ1 2
ĠA d
Ġd ec
Ġg reat
il ity
Ġe ven
ĠA ll
Ġa fter
as ed
Ġse e
Ġyear s
Ġm ein
fÃ¼ hr
Ġm ir
ich er
Ġsh ould
it s
Ġf l
sch e
Ġ1 5
A n
ĠG esch
w ard
Ġre m
ĠS te
vel op
ĠD ies
Ġex per
as ino
Ġre l
ĠDe utsch
Ġs m
Ġdies er
Ġk e
ĠU m
ra nd
Ġh igh
al th
ĠF re
or n
Ġp la
ter s
Ġd ire
ĠM an
Ġth en
Ġ1 8
p s
Ġi hre
ran s
it Ã¤t
Ġd r
et t
ti ge
Ġn ow
Ġweit er
ar m
ĠÃ ľ
Ġwh ere
Ġb l
Ġc ar
ĠA m
Ġm on
Ġ $
ow s
ad t
ier ung
Ġge gen
Ġdif fer
el n
r on
ate g
Ġp erson
o te
âĢ Ŀ
Ġ end
Ġbe g
p t
o x
ĠB es
w end
it ed
ĠAr beit
ti l
ar ge
p iel
Ġm uch
ra g
Ġa ut
Ġs ub
Ġbec ause
o f
Ġp ol
1 9
am men
Ġsp ec
Ġre ad
od e
Ġre qu
ess ion
ar ten
em ent
Ã¼ s
b l
Ġe le
Ġe mp
ĠI hre
Ã¼ hr
Ġk eine
is sen
d em
Ġd on
Ġein fach
b r
h and
i pp
ot her
ur ing
if ic
Ġge m
ie t
Ġw ant
Ġo hne
we i
Ġg anz
b ers
Ġm ed
ck en
Ġin st
Ġl oc
ĠA ut
et s
z u
Ġg u
D er
Ġad d
Ġst r
ĠU S
ĠPro du
l ass
ste ll
o tel
W e
D as
Ġs im
Ġb usiness
Ġw o
Ġincl ud
ĠI f
Ġh ome
on der
Ġth ink
Ġ [
Ġf re
te m
Ġm ich
ent r
v ers
ĠG es
ĠI nd
us ammen
Ġt ake
Ġm al
ach t
s o
ĠH and
ĠM in
it u
Ġein es
ĠP h
m an
Ġd ay
e h
Ġk ein
Ġs ti
Ġ .
ĠL and
âĢ ľ
Ġus ed
Ġd id
c ed
u ally
Ġo wn
Ġbe k
" ,
ent lich
I N
en ce
Ġpro f
Ġm us
Ġ1 1
w are
Ġe ing
ĠI ch
Ġvers ch
l ung
l Ã¤
we ise
r ib
at a
2 2
bs ite
5 0
ig keit
z ahl
g esch
Ġdis c
t on
Ã¶ ff
tell t
re ch
Ġdes ign
Ġpr es
Ġte chn
Ġdo es
Ġs on
ĠP ol
p le
ĠM ed
1 1
/ /
Ġbe ing
o ten
ot s
Ã¼ tz
c y
et er
n ah
le in
Ġa v
R e
3 0
Ġbe im
uch t
Ġh ere
abe i
ĠM us
c c
Ġf r
Ġde velop
Ã¶ ch
am es
Ġs ur
ĠW er
hl en
ĠU hr
Ġag ain
a gen
Ġm ade
w ay
: //
ru ck
ust om
tell en
ĠT r
eit s
in a
is m
f in
i or
e ver
Ġin formation
Ġsow ie
ĠU nd
as on
ĠB et
Ġg esch
m in
Ġb ed
ran k
Ġh im
Ġm uss
Ġbe fore
Ġp ass
ro l
at or
Ġr ight
Ġc re
ĠLe ben
Ġw en
Ġth ose
Ġwor ld
Ġsp e
Ġn um
ro w
m b
a um
t re
1 2
Ġpro du
ĠH a
u le
Ġdies em
Ġsel bst
Ġ â
tim m
id ent
Ġf ree
le x
Ġ3 0
al ity
l ish
Ġl ife
ad en
Ġres p
ĠâĢ ľ
ĠRe g
bur g
am m
Ġ ...
Ġwe ek
iv es
ig t
ur s
k s
Ġv is
re ad
z ie
Ġm o
ĠOn line
or ts
Ġ1 6
Ġm arket
ĠIn tern
end er
Ġ1 4
op e
Ġb ook
n et
ous e
ich ts
a i
ĠA s
Ġre ally
Ġs k
in ter
un ity
ear ch
E N
iv id
at her
oll ow
ot t
Ġe as
pp en
in nen
und e
' re
Ġs l
ur es
s er
ent ly
ak es
v or
um p
le t
ater ial
Ġz e
Ġs et
iv en
ĠC hr
al d
Ġad v
ĠM on
Ġg ra
j ect
Ġf amil
Ġs ign
Ġb ie
Ġan ge
ar s
Ġetw as
f ort
Ġfind en
ĠD aten
Ġand eren
ĠMen schen
in ce
sch af
ic s
Ġm Ã¼s
Ġc le
Ġc ur
iv ing
Ġch e
Ġe ach
Ġ :
u ck
Ġwh ile
Ġc o
Ġc our
w ar
ĠK on
ir t
a ve
ĠA pp
Ġt yp
n ess
ill ion
Ġle ad
ie den
b t
S ch
an ts
lo ad
ĠG ew
age ment
A l
y n
u de
ĠC l
Ġst and
Ġpro cess
Ġs om
oin t
iz ed
p art
Ġp ra
Ġc are
f r
ĠB ut
Ġ ,
Ġdiffer ent
Ġa round
g ung
g end
Ġv ar
o ber
ĠS c
ub lic
Ġa ct
ĠD es
Ġs er
Ġl ong
ĠÃľ ber
Ġd et
Ġprov id
ten s
Ġre al
B e
Ġge ht
Ġl ast
Ġhat te
er al
Ġ ide
Ġ1 7
Ġmach en
ĠP ar
Ġdam it
Ã¤ tz
Ġf un
in es
Ġj etzt
Ġv iele
u k
us h
Ã¤l t
i ÃŁ
ich te
olog y
Ġz wei
at ure
Ġsti ll
Ġ1 3
Ġt rans
Ġto p
am en
if t
Ġgo ing
ri end
ble m
ust r
ĠV ers
W h
we en
ĠTe il
omm t
o h
Ġof fer
Ġen g
ĠR es
Ġver b
Ġin tern
in ing
ec ts
h ip
, "
w ert
ge ben
Ġte am
w ays
st Ã¤nd
Ġs ame
ah n
Ġe igen
Ġb ra
A N
eit en
az u
f le
Ġfor m
Ġpro duc
g leich
ak t
Ġus ing
Ġg leich
i ver
re ib
ĠSt ud
ier te
ĠK inder
ra d
Ġsein e
ab en
Ġc ustom
Ġm Ã¶glich
Th is
ide o
Ġ #
Ġs ystem
ti al
Ġc r
ĠI s
Ġd el
sch l
ah re
Ġr un
nd e
a j
uch en
Ġne ue
Ġer st
f ra
ĠJahr en
Ġpla ce
Ġbet ween
a pp
as ch
od y
ass er
Ġb oth
le ase
ich ten
Ġor gan
Ġb o
ĠI hnen
h m
il t
re en
p ar
Ġimp ort
e e
ro ss
ĠA k
ĠG er
v ing
Ġst ar
! !
I ch
ĠD u
os s
ĠÂ »
Ġf ound
in al
ĠD r
u tion
ber g
Ġf ew
c ial
Ġ ers
Ġl ang
st ag
ne ll
ĠGr und
im m
la ge
ic t
ze ich
ĠB r
unk tion
Ġsp iel
Ġb it
Ġf ollow
hal b
Ġj a
Ġh al
Ġ1 00
t ag
itt le
il m
b ild
le it
Ġp ay
o pp
Ġc ount
Ġch ild
b ook
Ġp ost
auf en
Ġre t
Ġd och
Ġc olle
Ġst art
hal t
Ġcomp any
ĠThe y
Ġpos s
e kt
Ġto o
one y
Ġb ring
Ã¶ s
og ra
Ġbel ie
ten d
Ġhe alth
ail able
Ġrequ ire
c l
i qu
Ġmon th
Ġsh ow
tra g
es en
Ġm ain
E S
ĠâĢ ŀ
ĠT o
Ġv al
Ġc or
Ġwur den
ĠE l
Ġf ull
ĠN ov
Ã¤ d
Ġs eit
mer ic
U n
ĠP erson
Ġg ar
und es
is ion
O N
" .
Ġ X
and er
ĠDeutsch land
z w
Ġein z
ĠEn g
au er
Ã¤ uf
Ġ20 20
up t
P ro
if f
v es
b all
Ġw oll
Ġm od
ĠIn formation
Ġb re
Ġexper ience
Ġden n
ĠL ie
isch er
ĠH ow
ag er
r icht
is ts
g est
b o
Ġ201 8
im mer
z ial
Ġcomp le
ĠIn ter
mit tel
an e
Ġw Ã¼r
Ġke ep
Ġr est
Ġb ro
Ġs ay
iel d
up er
1 5
Ġm ov
Ġall es
Ġber eits
c on
Ġd abei
ĠG en
Ġth ings
Ġw rit
igh ts
b ra
ge m
Ġf ol
Ġall er
h Ã¶r
lo ck
ĠmÃ¼s sen
' ve
Ġserv ice
Ġpar tic
ir m
ĠUnter nehmen
la ck
ï ¿
A T
ï¿ ½
Ġc al
ĠC omp
w ork
ĠK l
th ing
Ġn un
is k
Ġfe el
Ġle arn
am t
ĠTh ere
Ġe m
ra ft
I t
at Ã¼r
Ġm en
ess er
en k
ard s
ĠG ro
Ġuns ere
ann t
E in
un ter
Ġl assen
v ed
ĠJ un
la ub
Ġc ap
Ġapp ro
Ã¤ re
Ġand ere
lie ÃŁ
l ess
Ġ2 4
Ĥ ¬
ĠG l
ĠB ed
en z
Ġind ivid
Ġ201 9
lo y
ĠUn ivers
ĠSt adt
ĠEur o
a ur
ĠS erv
Ġl ot
ert ain
ĠTh em
Ġd ata
p os
Ġge l
Ġzw ischen
b es
Ġ2 5
' m
ch er
ur z
Ġl ove
Ġle tz
Ġson dern
ein s
Ġis s
A R
ge t
a ÃŁ
Ġop en
Ġsupp ort
Ġ201 7
Ġbet ter
c o
Ġj e
er k
Ġth ree
Ġk osten
red it
Ġsm all
Ġav ailable
ar ly
at ter
ĠP art
ĠJ an
ĠQ u
ĠF ahr
Ġch o
ĠÃ ĸ
Ġd uring
Ã¤ f
b y
Ġsch ool
iss ion
eit er
Ġf act
ĠâĢ Ķ
ĠO p
ut en
fol g
al y
o ot
Ġe l
Ġp at
ail s
Ġnum ber
Ġwith out
ĠW enn
e ich
ĠA t
r ip
at is
Ġal ways
h aus
Ġl ittle
1 8
Ġg ame
is en
Ġre ce
or m
it es
ĠW elt
ĠG o
ĠT ag
Ġb as
Ġe t
eth ing
he im
c cess
Ġd ist
ĠC ar
ge w
ge d
Ġe ben
all en
Ġm ight
2 00
Ġw ater
Ã¶glich keit
rie d
st r
pr ess
w h
re am
Ġbu ild
ĠW och
uÃŁ er
la gen
Ġm em
Ġt ry
Ġcom e
for der
Ġc ost
Ġversch ieden
Ġb in
Ġab le
b ed
Ġ20 21
V er
Ġ5 0
Ġer sten
Ġs ure
Ġsoll te
ft ware
r es
om en
Ġm ust
Ġbes te
Ġb r
w ick
Ġimport ant
ent er
Ġcont in
f ind
ĠJ ahre
ĠU r
ĠP re
is piel
s atz
h Ã¶
t ain
ĠH otel
Ġwar en
ĠC on
fahr en
Ġinclud ing
h a
as ter
W ir
or th
u pp
Ġor der
Ġp ut
or en
Ġs ag
Ġk lein
Ġz usammen
ar ch
b au
Ġch ar
O R
Ġqu es
ĠW ie
Ġb esch
ĠH aus
' ll
k ommen
Ġpro gram
Ġdies es
al en
1 6
n ung
. ,
Ġm Ã¶ch
Ã¤ hl
h in
ip s
sel f
Ġfamil y
or g
ĠA meric
ĠK ont
sch utz
im es
Ġb ig
ze ug
Ġzur Ã¼ck
p or
Ġl o
un kt
Ġk onn
ĠkÃ¶n n
Ġcl ass
Ġd azu
Ã¤n g
r at
we g
Ġf riend
es ts
er g
1 4
Ġc ol
re t
Ġsom ething
Ġinc re
Ã¶ l
f re
Ġp ower
p ort
ot o
Ġ ir
Ã¤hr end
ĠS ep
b ie
in ation
Ġo per
Ġunser er
Ġch ange
am er
Ġt ro
.. ..
g ang
ĠC o
ch es
Ġper form
Ġ201 6
ĠSch w
ww w
Ġprov ide
h Ã¤lt
Ġo pp
g al
ien st
ĠC omm
Ġsch nell
ct or
Ġle vel
Ġserv ices
Ġcons ider
ĠP reis
Ã ©
Ġgro up
um mer
il y
1 3
Ġne uen
ig ital
Ġne xt
ĠBe i
Ġ x
ier ten
ĠEn t
f Ã¤
Ġe qu
o gen
C H
Ġad dition
ĠF in
Ġ19 9
um ent
ĠA ug
k te
ff en
Ġs ing
ut er
ĠPro z
u ge
ĠAr t
p f
ĠF r
s c
atÃ¼r lich
ĠF Ã¼r
Ġan other
Ġwith in
rit t
ĠF amil
are d
ĠB ild
ĠF all
ic ally
1 7
Ġg ive
s on
g ar
Ã¼ nd
ti ert
Ġh tt
at ely
ĠC or
Ġf ac
ec ted
i ents
h or
Ġsein er
ll er
st ru
Ġc asino
etz en
Ġwe bsite
2 5
Ġs ince
Ġg ot
Ġsec ond
og le
e x
Ġs ite
Ġb le
al es
e le
ĠA pr
ĠN o
eth od
Ġk ommt
Ġa kt
Ġde utsch
ti ce
Ġm oney
Ġhe ad
as es
tem ber
S T
Ġj ob
Ġp ers
Ġw ichtig
re g
ti eren
ĠK om
Ġcon c
lich er
Ġne ver
Ġhe ute
h ol
in t
ĠC asino
ti er
ist r
Ġgen er
Ġprof ession
m m
Ġle t
fall s
Ġdies en
Ġl ink
Ġd ays
an gen
Ġgro w
ĠE le
ĠA uch
z ug
ĠM o
I T
ig ung
uf f
Ġac cess
id s
Ġjed och
ir d
out h
g ra
ĠS k
Ġb en
Ġare a
Ġh ard
ĠK ar
Ġh ist
Ġcur r
c ted
Ġ2 1
Ġpl an
ro p
Ġm ind
f ang
ĠTe chn
Ġf ast
ĠK unden
Ġwe il
ation en
u gen
2 4
I f
ill s
Ġro om
Ġg l
ĠâĢ ¦
ed er
ĠW ar
Ġf Ã¼hr
Ġa ff
Ġper f
E s
Ã¼n f
Ġsich er
Ã¤ s
- -
Ġspec ial
k lich
Ġp op
Ġ u
Ġc all
ĠS he
ĠDies e
st Ã¼tz
ran sp
our s
t he
Ġein mal
S p
m ann
ĠW ohn
Ġas k
E D
Ġres earch
ĠB undes
ĠG em
Ã¤ ÃŁ
v ent
Ġt urn
ĠB ere
Ġab s
Ġd rei
oug ht
ĠInformation en
Ġpro te
A L
st ra
n ing
Ġver l
it er
ĠG ra
Ġbu y
is on
la uf
or ies
gr und
ob il
ĠNew s
ul ti
d ing
M it
Ġ201 5
Ã¶ ÃŁ
ĠSt and
Ġent sp
kl Ã¤r
Ġapp lic
ĠW ith
um e
Ġl ess
ĠC ont
Ġpr iv
ĠM ay
Ġ2 2
e ign
I m
ĠM al
af Ã¼r
y l
Ġ Ã¼
Ġlook ing
Ġwork ing
sche id
ĠIntern et
Ġv iew
Ġk ommen
Ġat t
Ġp ublic
Ġunder stand
l i
m ed
st off
Ġste ht
Ġre view
al le
Ġh och
Ġjed er
E r
ab ly
lo b
ĠS m
amp le
Ġan n
ass e
U R
ĠSt ra
Ġg est
H e
us e
on y
Ġm aking
ch ts
Ġv oll
Ġb ene
Ġihr er
ver n
ut es
ook ies
ein en
b and
nah me
ab ility
on us
it ive
Ġ201 3
u x
a un
a ar
ĠB o
g o
Ġf ood
Ġalle m
Ġche ck
ĠM od
b et
j oy
ĠB ar
Ġh o
ue ll
Ġcon f
y le
Ġt re
ĠS eite
ap er
Ġm et
A r
Ġme et
ĠM y
ĠE ine
em s
ank s
z t
ĠW ind
ĠS er
Ġimp ro
ck e
ne y
s k
Ġ201 4
ĠA ber
ĠG eld
Ġn ie
ond ers
ĠSch ul
ap e
it Ã¤
sp iel
ke hr
ĠH ier
Ġihr en
Ġproduc ts
iz ation
ction s
Ġqu ality
Ġse ver
S h
k er
ĠB uch
Ġstud ents
ĠAn geb
ĠP er
ĠC om
Ġst ate
A S
Ġc ase
ĠN utz
ec tive
ĠTe am
sch ied
Ġto day
Y ou
Ġm eine
6 0
ĠSch l
S o
Ġ2 3
il le
ie f
c le
Ġl and
tik el
Ġde fin
Ġa k
il fe
Ġk ind
ĠQ ual
ĠApr il
Ġde v
on es
nis se
or gen
iet y
Ġ +
ul ts
Ġt er
ĠW or
le gen
ĠC an
Ġh um
Ġwel che
stell ung
tic s
it ing
Ã¤n ger
th ers
ĠP at
us ch
Ġl aw
Ġ201 2
iv ed
rie b
ach en
ner g
d ings
Ġer w
we il
ĠFor m
ult ur
Ġbes ten
p ert
ĠNov ember
or f
âĢ ĵ
om at
is ing
oc us
ĠPro f
Ġbie tet
k auf
ĠFe b
4 0
g lie
Ġmach t
Ġf ar
ch te
atur es
ob ile
Ġagain st
ogra ph
ĠSep tember
Ġev ent
i ate
Ġl ik
as st
ent en
Ġa way
Ġl arge
tion en
um en
is ed
ĠW asser
ĠM ark
pp e
Ġver w
ge ther
Ġs af
ĠT est
Ġse hen
Ġa ir
Ġse i
Ġcomple te
rie ben
il der
ent al
Ġcon n
A d
L e
it ter
Ġeas y
te gr
Ġcour se
at iv
p end
Ġth ough
fer n
ĠB ro
Ġâ Ĥ¬
Ġi hn
ĠK n
Ġac tiv
ĠF ar
ec ial
alt ung
uch e
ĠA ss
Ġaus ge
v ious
Ġm ar
Ġbe h
Ġex ce
Ġgro ÃŁ
ĠD is
Ġcont rol
Ġsein en
es ter
ĠO ff
v oll
f te
Ġloc al
I S
Ġwh y
ĠR Ã¼ck
et her
ĠSp e
j ekt
Ġd ir
Ġar t
in er
Ġk l
Ġemp loy
Ġall ow
ĠJan u
ord ing
ĠBere ich
Ġd ra
enn t
Ġ4 0
s y
Ġwir klich
ĠE nde
ĠÃ Ħ
Ġn et
8 0
Ġha ving
ĠTh at
ĠwÃ¼r de
ĠH ol
Ġc ertain
ĠP ark
2 3
ur y
ĠBer lin
rÃ¼ nd
Ġth ing
ĠG u
icher heit
ing en
Ġperson al
ĠO b
Ġf il
Ġin t
Ġge f
ĠChr ist
o or
ĠM Ã¶glichkeit
Ġl ist
ĠW hen
un ft
Ġc over
ro om
Ġl ight
Ġer halten
I D
Ġm aterial
in c
Ġand er
E L
ch ten
Ġm ag
ti es
tig t
Ġneed s
u h
Ġsu ccess
Ġl ine
Ġspiel en
Ġall en
ier e
id es
con om
ĠR o
Ġpra c
ol f
f ic
Ġpro blem
Ġact ually
ĠAug ust
Ġf our
ĠD urch
in ed
ĠB est
aj or
Ġp oint
b el
ĠEn tw
Ġal ong
C h
Ġgo vern
ĠLeben s
ĠR ed
Ġt imes
Ġo ld
ar ing
Ġof ten
wer k
âĢ Ķ
Ġchild ren
ese ll
Ġw r
U S
ĠW as
d s
ĠM ann
Ġt est
it or
Ġlie gt
Ġposs ible
Ġn atÃ¼rlich
v ir
ĠUnivers ity
ll t
an st
gan gen
Ġb ased
el f
Ġen joy
as k
Ã¤nd er
ĠD a
en se
o hl
op f
is te
Ġc reat
b ack
i am
ĠDes ign
Ġt reat
ace book
s ide
und er
Ġs ays
Ġt un
ĠZ ahl
O n
reich en
g aben
ĠSt re
or mal
Ġkosten los
w ahl
Ġto t
ot os
uf t
Ġge ben
m ar
Ġpol it
Ġn ichts
ub e
ach e
Ġ >
Ġl ive
Ġd ort
ec tion
ĠN ot
ĠSp ort
ick en
be i
F or
Ġpr ice
ĠB esch
gram m
o o
Ġd afÃ¼r
Ã¼ t
Ġt alk
an te
pl ay
los sen
ck t
Ġw Ã¤hrend
Ġincl ude
0 1
D ies
av or
Ġse le
ire d
um s
Ġp ain
ur ity
Ġk omp
yste ms
Ġn Ã¤ch
Ġto gether
es h
Ġk on
ic ro
p ly
Ġg ames
we is
Ġf und
N e
ust ry
ot or
Ġe d
ut ter
o ung
Ġwen ig
_ _
un st
an ze
Ġein ige
Ã¼ ss
Ġinter est
Ġwoll en
ĠE nerg
Ġn ame
ĠF ran
9 9
Ġweit ere
ul ation
op s
b re
ĠB re
r ich
Ġb zw
Ġl im
Ġin f
ing er
Ġso cial
oc i
u elle
Ġs ide
Ġf ra
Ġpro m
Ġgr Ã¶ÃŁ
g abe
vir on
Ġs w
Ġprodu ct
read y
ĠIn st
0 5
e y
op h
Ġme ans
ĠW ill
iqu e
Ġst at
et en
Ġr ich
Ġn on
g l
Ġp ast
Ġr und
Ġpro ject
ĠWh at
Ġex tra
w ort
A s
ĠGo ogle
Ġst att
on a
our ce
ut ure
g ing
ac y
. )
Ġsch w
le icht
o le
Ġm akes
Ġsever al
Ġget ting
Ġ *
ur t
u z
Ġf ocus
ic ation
Ġste hen
ĠD em
Ġinv est
Ġviel en
Ġdire kt
Ġcomm unity
omm end
Ġte il
ure d
Ġjed en
0 3
Ġc a
ĠE d
ĠH och
ĠS y
S ie
ap s
Ġd one
ĠG od
ti me
Ġof t
in ner
Ġkonn te
ic y
Ġgro ÃŁe
ĠJ ul
Ġf est
0 9
ru ct
Ġbec ome
Ġt em
schaf ten
Ġb ody
Ġg ute
Ġun til
0 7
om ent
Ġ2 7
ges tellt
Ġcre ate
lich keit
Ġ est
ĠB Ã¼
w ir
ĠD ar
ĠC he
ĠD ec
Ġ201 1
ĠS ol
T e
ain s
I C
ĠP ost
ĠTh ese
en nen
es ten
schaf ts
ut h
Ã¶ff entlich
Ġs ug
Ġgen au
ĠThem a
Ġd ich
Ġan s
al if
Ġet c
ah er
Ġle ft
Ġl ow
ĠO ne
Ġ20 22
ht t
ĠFeb ru
Ġspec ific
0 4
l le
Ġden en
c ent
ĠZ usammen
Ġwo hl
Ġor ig
anc ial
Ġ2 8
Ġal ready
ĠWe bsite
Ġi hm
Ġm il
Ġw Ã¤re
la im
Ġm ajor
Ġwe b
ĠK osten
an ies
ĠServ ice
Ġqu ick
ĠD o
ward s
Ġ2 6
Ġh ouse
Ġar beit
ru ppe
Ġacc ount
Ġo cc
Â »
le y
ile d
Ġdevelop ment
p unkt
Ġetw a
ĠProz ent
Ġsh ort
Ġde al
ĠA bs
0 6
Ġme an
Ġen ough
f eld
Ġs uper
ĠCh ar
Ġpartic ular
Ġha pp
ĠS am
ĠH ome
ĠV ol
Ġd ein
Ġfollow ing
omm un
Ġletz ten
Ġe duc
Ġopp ort
os ted
R E
Ġcle an
ĠT op
ug end
j ek
Ġex ample
ĠB en
Ġe ver
Ġre le
Ġge b
ĠM ag
Ġn utz
Ġcon dition
ĠB ank
Ġv ideo
ĠM ich
n ov
ĠF ol
E n
Ġk aufen
Ġo thers
Ġele ct
ĠI de
sch lieÃŁ
ĠEntw ick
Ġvis it
ing e
an ces
ĠEr fahr
y ing
ĠBe ispiel
in en
Ġger ade
Ġcom es
er tif
Ġret urn
tion al
Ġar tic
Ġdo ing
Ġte ach
2 7
av on
ĠY our
an a
ue llen
al ten
ĠN atur
ĠS l
Ġm ethod
0 8
ur en
ĠWe g
ĠGe b
ein t
Ġl ange
Ġp age
neh mer
Ġcount ry
Ġdid n
Ġperf ect
ak en
Ġdar auf
os p
ess e
ĠWoch en
ĠS el
reib en
ir l
ers tell
Ġge hen
ĠSt r
a ul
Ġw ind
ab or
viron ment
W enn
ur ther
Ġpres ent
Ġsoll ten
r or
Ġen s
Ġst ay
2 6
Ġp urch
om mer
uf act
Ġse ason
Ġsing le
Ġp ack
part ment
Ġdire ct
au en
ĠRe gel
ĠProdu kt
Ġmem bers
Ġcomm un
ll ing
Ġ Ã¤
Ġe ig
Ġbes timm
ig es
tig keit
Ġst ark
Ã¶r per
al ys
Ã¤ ter
ab y
Ġuns eren
om an
P h
b ind
Ġbene f
ĠF rank
Ġb esser
Ġ201 0
4 5
ĠM et
Ġh ol
Ġac ross
our ces
D e
Ġso gar
Ġc ou
Ġers te
ĠD on
i od
Ġn ight
lob al
schl uss
ĠSt a
Ġpro b
H ow
Ġse arch
ach ten
ĠArbeit s
Ġger ne
Ġto ol
h men
Ġbe iden
Ġke y
Ġpos ition
Ġh Ã¤t
Ġstr ateg
W ie
Ġw issen
tic al
A C
ĠN ational
tel le
ug ht
Ġbie ten
ag s
sy ch
re cht
ach sen
ĠH ar
ĠJ ohn
Ã¤ m
Ġmonth s
ĠEur op
or ten
Ġrec ord
ec ess
itu ation
a id
ver t
g th
O S
ĠF ach
Ġkann st
Ġb rand
st adt
Ġeigen en
Ġag o
Ġle g
r Ã¤n
r ies
Ġge eign
az on
2 8
z ogen
Ġbes onders
Ġk urz
it te
ib en
ĠA c
ti re
it ch
ĠLe ist
ĠK Ã¼
ĠIhr er
et te
ab el
Ġcal led
lish ed
uf en
Ġle ast
Ġind ustry
pert y
k tion
Ġre ason
Ġsein em
ber eich
ĠC ity
le g
Ġh ig
Ġs y
ck er
N ach
Ġabs ol
A M
Ġoff ers
Ġgro ÃŁen
if en
Ġsch Ã¶n
ic ial
ik er
A b
ĠC O
Ġdoes n
Ġz us
Ġrec ommend
im al
ull y
Ġop tim
ĠAr tikel
our n
ĠB as
um m
Ġst ory
isch es
ĠJ u
id ay
nah men
ĠS al
ĠPl atz
Ġsh are
ĠC olle
E T
c rip
0 2
in os
Ġjed e
Ġl Ã¤s
t es
zie h
aff en
Ġeing e
ur ance
Ġdown load
Ã¶r der
le tz
Ġl ov
Ã¼ d
ĠkÃ¶nn te
Ã¤ hlen
le ine
Ġinv ol
A m
m Ã¶glich
ĠT V
ĠO ber
z er
Ġf uture
ĠO ur
on nen
ĠHow ever
ĠP ra
ĠK ind
Ġ2 9
ĠP e
Ġd avon
ĠM arket
Ġc ity
j ects
Ġm ulti
Ġe conom
Ġw atch
Ġon ce
Ġex pl
ce pt
ut lich
Ġc amp
Ġz ahl
Ġver fÃ¼
Ġh old
Ã¼n s
ad em
es ent
Ġmus ic
ah men
ĠB eit
ĠFra ge
Ġre du
m ost
Ġd i
ism us
Ġgem acht
ĠS a
Ġsp ace
Ġcomp anies
Ġst ra
entr al
Ġintern ational
st Ã¼ck
Ġinst all
Ġm illion
Ġh ours
hr en
Wh at
z iel
Ã¤f ts
w and
Ã ľ
etz ung
Ġtyp e
b ung
Ġcl os
Ġ ersch
ĠB au
Ġb ar
fer ence
Ġw alk
sch ein
und heit
r if
m Ã¤ÃŁ
ĠZ ug
Ġchar ac
ĠR ad
sch n
et ter
wo hn
ĠB ay
ĠmÃ¶ch te
ĠU p
ĠZ iel
Ġgovern ment
Ġen erg
Ġgem eins
Ġw omen
ang es
ĠMit arbeit
ch sel
2 9
ĠGe gen
ĠC ol
ib r
ĠK r
ĠSp iele
ĠB ook
E x
Ġn atur
Ġm ark
ĠZ u
ĠlÃ¤s st
Ġin form
ĠR est
lich t
bild ung
Ġfe atures
sp r
ra ch
ĠM Ã¤r
ĠMar kt
ĠS icherheit
am a
Ġres ult
Ġw on
Ġf lo
Ġph ys
ĠK auf
ar te
Ġstar ted
bra uch
es ted
ĠTe le
ad a
ag ing
onder e
Ġrep ort
Ġtra dition
ĠB el
ĠWor ld
Ġcom b
ste llen
Ġth ought
Ġw a
Ġd ue
led ge
Ġh Ã¶
ĠPl ay
ĠPl an
er ing
or ed
ĠUn ited
Ġf ield
la ce
Ġpr ess
Ġv ol
v est
Ġcont act
ĠM ore
Ġre pr
ĠIhr en
ĠA ir
Ġstud y
ub l
Ġme isten
Ġgeeign et
Th ere
as ing
n ers
ĠAmeric an
il ities
ress e
Ġp ur
ĠL ink
Ġcont ent
ĠBe g
Â «
rÃ¼ h
Ã¼r ger
ti an
te mp
le ment
ĠMit tel
Ġy oung
esell schaft
ĠÂ ·
ĠS an
Ġval ue
Ġd igital
Ġent wick
Ġres ults
Ġ iden
P l
d ruck
ĠV iel
ĠP ort
j Ã¤hr
bed ing
ĠI mp
A uf
Ġvar ious
Ġ essen
ĠP M
Ġz ie
Ġc ame
O T
la u
end s
ĠS ystem
ĠFra uen
Ġinter ess
ĠS ec
ĠFra gen
f ass
and s
ĠB y
fÃ¼hr t
Ġevery thing
Ġdisc uss
Ġne ar
Ġf all
Ġin ner
ĠB ra
k on
Ġde f
3 5
Ġg ilt
as tic
Ġen c
Ġkn own
p e
Ġin tegr
Ġp oten
ĠY ork
Ġy et
ir c
bl ick
Ġha ppen
Ġzw ar
ĠG ar
Ġv ia
Ġr ange
Ġe y
Ġ6 0
Ġfol g
le gt
it i
u tions
Ġunser em
g ress
ĠIn s
ĠW est
ĠE m
ce p
ĠAl s
ĠE v
ĠD enn
ĠF er
y d
ĠR ec
Ġch allen
it en
w ie
Ġresp ons
Ġc ent
ĠW ork
ĠP f
ĠH Ã¶
Ġa uÃŁer
Ġwrit ing
Ġ ur
Ġunter schied
ĠA g
Ġe uch
Ġex tre
ip ment
le ist
iden ce
Ġher aus
Ġver wend
Ġp oin
w elt
ar i
Ġc m
ĠD i
Ã¤ ren
ĠWe b
ĠO ct
Ġcurr ent
Ġcustom ers
Ġhin ter
Ã¤t ze
inn ing
ib ility
te ile
ĠH am
ĠAr ch
ĠP rÃ¤
Ġne u
c ing
Ġv ier
Ġpers Ã¶n
Ġman agement
icher ung
olog ie
m eld
ĠChr is
Ġtechn ology
Ġadd ress
Ġg iven
Ã¤ us
Ġiss ues
Ġe arly
at te
Ġp ick
ĠIn f
ĠF acebook
ĠGem ein
Ġbre ak
au ti
Ġex c
or ted
ens ion
Ġso und
ze p
Ġcomm on
ĠO ut
Ġr ichtig
age d
Ġir gend
em p
Ġc ut
ult ure
ith er
Ġl og
a el
Ġc ell
Ġaller dings
A P
ĠF il
an ten
ĠA M
os ition
. âĢĿ
ra um
Ġhum an
Ġapp ear
Ġnew s
ĠReg ion
ĠK ir
ĠOr t
Ġer folg
ĠT er
ĠUS A
Ġt ax
lich es
m als
Ġam ong
os en
Ġbl og
Ġfind et
Ġc ard
ecial ly
own load
ĠMe hr
ĠMit glie
Ġp assen
Ġaut hor
end ing
Ġn ormal
ĠN orth
le b
A nd
ð Ł
Ġrel ations
M ail
Ġin sp
ĠG et
Ġab ove
ĠB lack
Ã¤nd ern
ese hen
ĠBl ick
ĠJ ugend
ck s
ou d
d ate
Ġex am
M e
am ent
Ġto ok
Ġques tion
ar en
al ter
ĠT re
o id
ateg or
Ġt aking
ĠEin satz
rÃ¤ ge
Ġbe w
ch s
ĠE mp
Ġsim ple
Ġbel ow
h ab
ĠA f
Ġre cht
ĠM ein
il ar
Ġbed e
um b
Ġm ax
Ġeng ine
Ġg ab
Ġsome one
ĠM Ã¼n
ĠZ e
ĠEr geb
Ġwh ether
Ġpro per
Ġp ict
th ough
Ġf it
ĠM illion
Ġques tions
Ġen vironment
Ġmed ia
ĠT age
Ġ ess
Ġje weil
4 9
ĠVer fÃ¼
Ġte ll
Ġwork s
or ge
Ġm ess
Be i
le ben
Ġbe find
k ten
c er
Ġe ar
Ġprofession al
ĠB u
Ġwe iÃŁ
Ġfun ction
ustr al
ĠMus ik
am b
ĠAut o
A ll
ĠI I
ann ten
ĠBes uch
Ġunter stÃ¼tz
ĠEur ope
3 3
ak er
ĠH el
Ġfin ancial
A us
kt ur
ĠHa upt
b uch
pl atz
I L
Ġl ater
Ġre ach
z immer
ĠSt ate
u he
ĠF ilm
ĠD ire
U N
Ġw ent
Ġwen iger
ĠO f
is es
h ing
Ġnet work
ĠK unst
Ġsag t
N ew
Ġprovid es
ĠS ti
W hen
ĠPro blem
Ġiden tif
Ġbuild ing
or es
Ġne ben
Ġse en
ĠSel bst
Ġwho le
b ach
ster reich
f on
Ġp aar
Ġentsp rech
Ġpro perty
ĠS il
Ġp ie
auti ful
ĠC ount
z us
m ark
Ġ =
ĠProdu kte
od en
Ġge hÃ¶r
Ġ200 9
Ġper iod
p re
Ġenerg y
i ber
Ġa ud
ĠD en
Ã¤hl t
ir es
Ġhtt ps
Ġem ail
Ġtra vel
ĠâĢ ¢
Ġmin utes
ĠM ai
og n
gem ein
ĠW ahl
Ġstr ong
g n
ol ution
ĠR ahmen
F Ã¼r
ĠV ideo
mb H
ĠF ree
ĠRe p
r ift
pr Ã¼
ble ms
at ten
Ġso ftware
Ġo il
Ġm iss
ĠFra u
ot he
u ed
ant wort
Ġsim ply
Ġhat ten
j ahr
Ġc laim
Ġfriend s
ĠB usiness
ourn al
ag t
f ully
Ã¤ che
ĠVer gleich
ge hen
Ġrequire d
ar f
Ġd Ã¼r
W as
ĠS ome
ĠAl le
op er
fÃ¼hr ung
Ġbek ommen
Ġtot al
Ġf ive
ies en
Ġsign ific
Ġf urther
ĠWind ows
Ġihre m
Ġman ufact
we iz
ĠGesch Ã¤fts
ĠOr gan
ien en
h of
ĠS oc
z entr
ish ed
Ġdif fic
ĠC r
Ġcomp et
Ġop tions
ein ander
em ents
Ġhist ory
ĠO kt
Ġhow ever
ne w
or ing
Ġe ither
Ġbelie ve
ĠC as
Ġmein er
ĠSt ar
Ġes p
ĠH igh
Ġle icht
Ġbek annt
Ġn ecess
h Ã¤ng
ĠRe chts
ĠT H
Ġme as
ie g
av ing
sh ip
Ġkein en
Ġverschieden en
c oin
ĠBl og
ĠT our
Ġtra ining
ĠIhre m
hl t
Ġt ransp
Ġexper ien
i ans
Ġm id
c ome
n ow
Ġw onder
Ġqu ite
ĠM il
ste in
Ġb ad
Ġconc ern
Ġide a
Ġperform ance
Ġk leine
Ġauf ge
O L
Ã¤tz lich
reich e
Ġam ount
Ġsa gen
is iert
ĠF uÃŁ
) :
ĠA fter
ĠC ookies
at form
ĠS w
Ġh ope
Ġre d
ĠCh ina
ĠW issen
le id
Ġreg ion
Ġklein en
Ġst aff
Ġm ass
d ie
ĠS outh
l im
heit en
Ġr isk
ze pt
les en
er st
Ġsch wer
ĠH in
Ġc ann
Ġass ist
wend ung
ide os
l ag
Ġa ch
ĠJ e
Ġ19 8
ĠAm azon
Ġne hmen
Ġdo c
P osted
an ted
Ġw ww
Ġany thing
ĠM c
ĠG mbH
Ġder en
gen ommen
ol it
' d
ank en
t y
Ġappro ach
it el
Ã¤n ge
Ġc rit
Ġcl ose
ĠHe alth
z el
Ġsag te
Ġj oin
Ġhtt p
fle ge
ĠKom ment
3 6
Ã¤nd e
ĠF unktion
Ġser ies
ie gel
A D
Ġin de
Ġhal f
Ġare as
IN G
o e
le i
at ors
Ġfr ont
bie ter
ĠS en
ĠD och
et y
re w
ro ll
Ã¼ l
Ġan alys
ĠU s
Ġs tellen
ĠJahr es
u c
Ġs ize
Ġc oun
U nd
s weise
Ġlik ely
ĠG rÃ¼
Ġwor den
ĠD et
Ġm atch
ĠB ad
Ġeig entlich
ĠK e
ĠSch ool
Ġi hnen
ĠMin uten
ĠZ we
Ġso llen
Ġp aper
ĠSt art
E C
Ġk m
ĠÂ «
Ġf unktion
ĠP C
Ġneed ed
ĠN etz
ĠT w
ĠM aterial
Ã¤ch st
ĠK ap
ail y
ĠK omp
Ġpop ular
Ġver d
se hen
ĠWir t
Ġeben falls
us her
ĠN et
ĠG old
ĠRe ise
ĠD ank
G e
ĠD am
ĠE U
ĠGro ÃŁ
Ġhe art
ĠS eiten
ook ie
Ġd ou
ring en
i ar
ste ad
rit ten
ge ber
l ig
b are
ab les
ĠAl so
Ġcho ose
m a
om b
i ol
5 5
ĠT od
l ang
ĠRe ad
Ġf avor
Ġcle ar
f ace
Ġyour self
Ġt Ã¤
ha upt
ch an
r ichten
ru ppen
ap an
ĠS im
Ġm obile
Ġsp Ã¤ter
Ġesp ecially
Ġ200 8
anc ed
Ġse em
ĠM ill
H ome
Ġt erm
Ġle d
Ġw ahr
Ġnutz en
Ġm ove
Ġze igt
Ġper cent
om es
Ġ Ã¶ff
ik a
ĠPh il
ĠBe wert
it zen
Ġf Ã¼
eh ic
ĠMar ch
ĠW el
Ġoff ice
ĠPr iv
Ġf ace
Ġevery one
om in
Ġf ilm
ĠmÃ¶ch ten
ĠPerson en
ĠS upp
Ġal most
ĠP al
Ġpro blems
Ġverwend et
is ation
Ġb lack
op y
f ung
er in
ag n
Ġe her
ĠA cc
ĠM r
Ġvers te
Ġrelations hip
Ġd aher
ĠZ w
Ð ĵ
unk te
Ġen tire
c rib
Ġb lock
id ge
ĠM ont
Ġt able
ĠPro jekt
A pp
Ġcon tra
ur g
Ġiss ue
anz en
ĠPr es
Ġmo dern
O M
ber eit
Ġc ra
ĠBer uf
f rei
Ġ3 1
ĠTe x
ĠS P
iz ing
Ġsignific ant
Ġp lease
Ġartic le
Ġwe gen
Ġdet erm
in z
Ġcom mit
s ere
Ġpr im
Ġsel f
I G
ann te
Ġtro tz
Ġl a
Ġapplic ation
Ġl iving
Ġhel fen
Ġw ays
he ad
ĠOkt ober
ten tion
h am
Ġindivid ual
Ġph one
7 0
ĠSpiel er
Ġread ing
ĠK re
Ġp ort
i as
ĠR a
ĠR aum
Ġat tra
Ġoff en
ĠVerfÃ¼ gung
Ġ %
? ?
ĠE nd
E ine
fÃ¤ h
Ġk am
Ġc redit
Ġpriv ate
ĠGesch ichte
i os
Ġprob ably
ĠA ugen
ul es
Ġaut omat
* *
Ġd ating
Ġreg ard
Ġin fl
amer a
Ġs ens
Ġprovid ed
m el
Ġus ually
ĠSo ftware
Ġra d
ĠWe bs
M an
tt y
ĠJ ack
Ġinclud es
Ġt w
igkeit en
ĠC enter
at est
ĠJun e
ĠG erm
Ġr ate
Ġto ld
ann ing
ap t
Ġmod el
Ġbe autiful
Ġl ar
k n
Ġtry ing
id ed
ĠT rans
rie den
bar en
e g
Ġm oment
ĠDe z
4 4
ĠAn tw
ro id
Ġp ub
Ġdiffic ult
ir us
ĠPol it
Ġinv es
gen cy
Ġsch le
er c
ĠMillion en
Ġd est
tim es
ĠV on
l ose
Ġpartic ip
ĠD ann
ĠR uss
Ġde g
es te
ĠAus wahl
ĠD av
20 20
Ġde utlich
hÃ¶ ren
ra y
Ġh ast
b ox
Ġ- -
Ġz un
Ġmach ine
Ġsie ht
d le
Ġh otel
u ÃŁen
3 9
3 8
ĠMÃ¤r z
Ġis n
om aten
ĠIntern ational
z y
Ġver m
Ġf oot
E M
Ġth ird
ĠWoch e
Ġso on
Ġsec urity
ĠIn c
Ġb lo
ou l
Ġincre ase
Ġsch Ã¶
z Ã¼
ĠN ow
Ã¶s ung
ĠD ienst
p ut
ar ian
Ġd eine
V or
is tic
f Ã¤l
Ġach ie
Ġknow ledge
ĠAngeb ot
ĠGes undheit
Ġadd ed
amp f
ĠJun i
T o
Ġs ystems
hl er
Ġens ure
k ung
D F
am in
aur ant
b or
ĠT ro
h le
Ã¶ ÃŁe
Ġviel leicht
ĠSch n
un n
Ġt aken
teil ung
stell ungen
and id
ĠSt unden
w ind
Ġcom fort
o es
20 21
Ġf a
is c
Ġso fort
3 7
t est
un e
qu e
ĠT or
ic a
ĠI N
ĠA ustral
ĠZ uk
Ġexp ect
l ungs
Ġd ate
r ig
Ġpoin ts
ĠNe u
ĠVer anst
Ġpl ant
fall en
ll ig
Ġl on
A G
ĠD an
ver age
P S
ĠH ilfe
Ġsim ilar
ĠKont akt
us ive
ran ken
Ã¤ mp
Ġextre m
Ġcom ing
us ion
ĠW ert
ĠD abei
ag ue
is ik
ĠB onus
sp ro
ĠHer z
gra ms
Ġpre vious
tre ten
Ġan geb
ĠG ed
Ġdesign ed
Ġc irc
ĠI T
Ġw in
Ġble ibt
ĠF ern
Ġwer de
ĠR el
Ã¤ch lich
Ġent er
m as
v is
ĠnÃ¤ch sten
ĠP ass
min istr
E O
Ġcontin ue
ll ent
1 00
ĠColle ge
Ġweiter hin
ĠW eiter
Ġmarket ing
Ġp ark
ut t
Ġcustom er
ĠLand es
Ġm atter
me ister
Ġcon stru
Ġa ge
Ġstand ard
Ġbis her
ick s
Ġan ti
Ġbeste ht
ĠB ack
ĠJ ob
Ġs ales
Ġhal ten
h o
bo ard
Ġdet ails
zeich net
Ġun ique
em and
v al
ĠEr w
ĠMitarbeit er
Ġnatur al
Ġel se
ĠIm m
Ġb all
ĠD ay
ĠSt ates
Ġab ge
wh ere
il f
Ġeduc ation
Ġr ather
Ġplay ers
d es
hal te
m on
st att
Ġf Ã¼nf
ond on
n a
et ten
ber t
is ierung
rie f
Ġl os
Ġus er
Ġst ore
Ġest ab
ĠJu ly
I ON
Ġin nov
Ġhig her
imm t
ĠhÃ¤t te
ĠK Ã¶rper
en ces
ĠW inter
o on
Ġst ruct
ĠL a
Ġtreat ment
Ġpl atform
ur op
Ġhist or
Ġre f
ĠC ons
ok er
ĠL og
c tive
Ġben Ã¶
ĠN ord
war z
ĠJul i
Ġro ad
ĠD el
4 8
Ġrem ain
Ġcharac ter
ĠgehÃ¶r t
Ġacc ording
ĠS ing
h aft
ĠEnt scheid
ĠEntwick lung
Ġl oss
arbeit en
ĠT ipp
Ġv ehic
Ġer mÃ¶glich
Ġac tion
Ġar r
Ġr en
Ġgen eral
Ġlie gen
ĠEx per
tra gen
Ġn ational
ĠRe view
if ied
Ġro le
ven tion
Ġ8 0
ich tet
iz in
Ġins ide
Ġw anted
Ġble iben
ĠM a
Ġse par
ĠK o
Ġst yle
Ġdel iver
Ġorig inal
ĠWe i
Ġus ers
Ġch anges
ĠGl Ã¼ck
Ġfor ward
Ġequ ipment
Ġh Ã¤uf
lÃ¤ ss
h af
Ġh ous
Ġwor th
fra ge
itÃ¤ ten
Ġins urance
u tet
ges amt
7 5
as te
ĠC D
ĠH erstell
Ġv o
Ġverschieden e
ĠEnerg ie
es tens
Ġc aus
Ġeinz el
se qu
Ġop tion
Ġdar Ã¼ber
ĠG arten
os ed
l ier
ĠB ilder
Ġst re
Ġin j
ĠS ommer
Ġst ock
Ġoff icial
Ġb ox
Ġdar f
Ġm er
Ġdefin it
ĠT her
Ġt akes
Ġex act
Ġne g
Ġopport unity
Ġann oun
Ġu til
ĠB it
Ġb ank
l en
ble me
Ġpr Ã¤
ĠFin anz
u el
Ġ9 0
Ġpre tty
ĠSm art
is se
Ġcor re
Ġint ro
I P
Ġev ents
ĠJanu ary
Ġans wer
ĠQual itÃ¤t
meld ung
Ġte xt
ic ient
Ġs le
ang er
Ġg Ã¼ns
w ill
zahl ung
Ġlearn ing
ĠFamil ie
er nen
ph one
4 6
Ġc oll
Ġtr ue
p ack
ĠPro gramm
ran ge
Ġkl ar
Ġtra ck
Ġl ay
Ġwh ite
u als
Ã¼ ler
ric t
x is
Ġst ren
Ġhe iÃŁ
G B
ĠL auf
ĠU K
Ġdr ive
ĠZ us
te chn
z uf
Ġfin al
ik an
Ġmein en
ĠÂ §
Ġwor ds
I M
Ġcre ated
eit ere
Ġaddition al
mp t
Ġcomp uter
Ġmed ical
row ser
ĠSch weiz
Ġdeutsch en
ĠSe e
Ġne ues
leit ung
7 8
Ġs tellt
Ġreg ular
Ġde pend
im um
ĠS ub
ĠGro up
3 1
Ġpoten tial
Ġk ennen
ĠM icro
hal ts
ĠEl tern
Ġt it
ĠB Ã¼rger
Ġthrough out
Ġweit eren
Ġout side
L E
wo od
ĠG el
at ory
ĠAn fang
Ġgrow th
ac tion
ĠOct ober
ĠMan agement
ĠZ immer
ĠJanu ar
ar r
pl an
itÃ¤ ts
as en
Ġpr ior
Ġze igen
Ġimp act
Ġ ill
y ear
ĠF Ã¤
or den
Ġp m
B ut
Ġhin aus
Ġs ix
ĠDez ember
Ġfe ature
Ġcont ain
ik ation
Ġg irl
Ġjed em
ĠIn vest
ungs k
c ement
lie ÃŁen
at ic
Ġweek s
m l
Ġal tern
om as
ug g
ĠPart ner
Ġbring en
Ġprodu ction
Ġer klÃ¤r
ĠServ ices
h ib
ut ung
Ġpart y
ĠZ um
Ġcol or
min ister
M ar
Ġm ill
ĠS uper
Ġte le
y m
Ġs we
Ġd og
ĠL in
us st
hand lung
Ġk ids
ok e
Ġf ix
Ġmo der
Ġass oci
Ġess ay
Ġrun ning
ĠK opf
ĠWer k
an geb
ĠGew inn
Ġle ider
Ġd ro
Ġc y
ĠRe al
Ġf ire
az ing
un ch
ĠMich ael
iv al
tig er
arbeit ung
air s
Ġintern et
Ġs ites
201 9
j a
ĠK ommun
Ġh on
Ġc ool
Ġit ems
ĠVer ein
timm ung
pr ession
opp ing
ĠMed ien
Ġeas ily
ĠP aul
Ġcurr ently
c il
Ġun ivers
schn itt
Ġor d
Ġ3 5
Ġn ice
rie g
M y
Ġan g
Ġvers ion
ĠNe ben
Ġk it
Ġpos itive
u age
Ġrece ive
Ġlon ger
Â ®
Ġbe vor
h em
Ġmain tain
B y
Ġrec ent
9 0
Ġ200 7
Ġnot hing
Ġste p
ĠR ich
Ġcou ple
c el
ient en
Ġhapp y
ĠH ouse
Ġsk ills
w irt
v on
U T
Ġsh ows
ar ter
em in
Ġre gel
B l
Ġread y
bind ung
ĠH is
ĠC B
âĢ ¢
am ing
Ġp an
6 5
icht ung
Ġb i
ĠB a
Ġt arge
Ġgut en
Ġinner halb
Ã¼n st
3 4
Ġ Ð
ĠI S
ĠB rand
ĠPol ize
Ã¶ffentlich t
fÃ¼ hl
Ġcann ot
b ased
in ne
Ġs ale
Ġst op
Ġpro grams
ĠD ownload
Ġany one
ĠFamil ien
Ġcho ice
ens ive
Ġter ms
Ġf ig
b esch
Ġse ems
ĠG ott
Ġges am
ip e
ra che
Ġvar iety
ind est
Ġsc reen
ĠBeit rag
y er
Ġbeh ind
Ġda ÃŁ
ĠH al
Ġs il
vel y
Ġl ower
al er
Ġpol icy
ir it
ĠHer r
Ġh ost
Ġcon st
ĠM ac
il er
tig ung
ar a
ĠEr folg
yn am
Ġactiv ities
Ġask ed
Ġ @
ec u
Ġ ?
Ġh it
Ġprac tice
is ted
Ġlink s
ad urch
Ġv ac
Ġe arn
ĠN Ã¤
ist ing
Ġgro und
Ġg ing
mit t
ĠZuk unft
i ra
spr uch
W er
9 5
sp l
b ank
ĠLie fer
v ant
ĠL ondon
ĠM art
Ġloc ation
ĠF rom
Ġup on
bes ondere
ed ia
orn ing
sch ule
R O
ang ing
ĠA N
ele br
3 2
ĠH all
l ungen
as che
Ġwe ight
Ġer forder
g a
ĠG ast
Ġab ility
U m
ĠF ort
Ġer g
Ġexp la
zahl en
fol gt
wo hl
ic ate
ĠG Ã¤
Ġl ock
Ġd ivers
ĠK ultur
Ġf air
Ġto uch
olog ical
ĠL ive
er y
ĠM Ã¤n
t r
Ġquick ly
Ġeigen e
end es
Ġ ung
ĠHol z
ĠP ress
sch ul
Ġtyp es
Ġk ont
Ġs or
Ġreg ul
il led
Ġ ðŁ
oun ts
Ġcl ick
Ġm ember
k unft
ge ld
ĠT em
m us
ct ing
n ach
Ġpat ients
Ã¤ te
com ing
un t
Ġle ave
ĠM aÃŁ
Ġw all
ed s
ti vely
Ġg lobal
ĠH ere
ing ton
Ġcl ients
S e
Ġmehr ere
Ġg anze
ze igen
ĠS T
Ġcons um
w or
fe hl
tend ed
as chen
aun ch
ĠDec ember
sp rÃ¼
ĠN icht
ĠS and
Ġo ben
Ġapp ly
Ġrel ated
ĠCount y
Ġb ott
Ġp le
201 8
ĠEng lish
Ġsk in
ĠE ink
Ġre in
Ġe p
Ġbook s
ic tion
ĠP ap
ĠD ruck
4 7
st re
Ġw id
n es
we hr
at ives
Ġc ode
es tiv
Ġc ause
201 7
ĠT Ã¼r
Ġverw enden
Ġpre p
Ġs al
zeit ig
A uch
Ġ7 0
Ġch arge
Ġimpro ve
Ġh ot
Ġdes crib
Ġle gal
v ille
Ġbe ispiel
zeit en
Ġb al
Ġw ich
Ġo bs
la f
e es
Ġz uf
ahr en
le tt
Ġeing es
ro ffen
klÃ¤r ung
Ġth er
Ġbit te
Ġj emand
rie bs
ĠInd ia
erv ice
Ġw ide
ak tion
w alt
au ber
c a
pl es
ur f
ĠB and
T ra
A t
Ã¶ hn
er ve
Ġrece ived
â Ĥ¬
Ġcont rib
Ġhe ar
el ves
Ġf ile
Ġle ben
ĠA re
Ġstud ent
Ġm ix
gesch lossen
Ġplay ing
al u
Ġber eit
Ã¼hr en
Ġnecess ary
ĠLe hr
ud get
ren z
P r
ĠC our
Ġl atest
Ġf rei
Ġrem ember
ĠL age
d ienst
Ġto ur
Ġloc ated
we isen
Ġhand elt
utz t
ge h
ĠEin zel
ĠJ ust
Ġre fer
icht lich
ĠN amen
Ġto wn
ĠD igital
Ġmein em
it ation
ĠM otor
Ġc ases
Ġon es
ĠP ay
g round
we gen
ug s
Ġcare er
F e
ti ven
ĠU ms
ĠAb end
ĠJ apan
ĠL es
Ġgemeins am
Ġsuch en
Ġsow ohl
Ġer k
Ġeff ective
Ġbenef its
ĠH aut
iz es
am s
Ġcost s
erv or
zie hen
ĠN ie
ĠThem en
Ġer hÃ¤lt
i ation
Ġrec ogn
Ġas p
ĠFor sch
C l
re c
ĠC amp
Ġdec ision
Ġlead ers
om s
ĠSch utz
re chen
hen s
Ġexce llent
z a
p ose
201 6
osp ital
Ġag re
ĠPerson al
rÃ¼ ck
stra ÃŁe
Ġide as
ĠAn aly
Ġrepr esent
r uf
ĠK at
Ġdisc over
ect or
u it
Ġde ath
Ġ5 00
ĠAmeric a
ĠR em
Ġpro jects
Ġhel d
sch t
Ġs etzen
Ġrec ently
he in
od es
h ood
eh m
so ft
Ġmen tion
at ung
ĠHÃ¶ he
Ġs en
Ġpurch ase
ind en
Ġ0 9
Ġw ish
Ġkonn ten
Ġf er
ĠM or
ĠFebru ar
Ġwar m
w Ã¼r
Ġf rÃ¼
htt ps
Ġl esen
k a
forder ungen
aus ch
for d
ĠEle kt
ĠWe ll
mb ol
W ith
ĠL uft
ĠT erm
Ġbu ilt
Ġ0 8
m ium
Ġn a
och en
ĠP ower
ĠCl ub
Ġcolle ge
Ġmaterial s
ĠHe im
ust rie
Ġsaf e
Ġwr ite
I V
Ġse x
av y
Ġide al
ad s
Ġha ir
onn tag
Ġg old
Ġk aum
ĠC le
ĠMarket ing
ĠAf ric
Ġar ch
Ġcondition s
O ur
Ġwoll te
on se
te xt
ĠFl or
Ġim m
Ġch ance
id a
Ġlead ing
Ġse ek
m ail
ĠE igen
Ġso zial
is er
Ġbo ard
Ġall ows
ĠAn g
at iven
Ġak tiv
Ġ Ã¶
ĠNach t
Ġatt ack
ic ations
Ġun be
a ign
as ons
ĠWh ile
o oth
la ut
S te
Ġc enter
Ġcom ment
Ġarbeit en
Ġdev ice
Ġlook s
iv il
Ġsol ution
ĠSt Ã¼ck
ĠH inter
os ph
ich en
htt p
Ġpar ts
Ġcertain ly
ĠÃ¼ber haupt
ĠT agen
or age
ut r
ur er
as er
gr iff
ĠA kt
B er
O P
, âĢĿ
un sch
m ission
Ġrequire ments
Ġp sych
tell ung
Ġs ett
ch ange
A ut
ĠPro gram
g ere
ier ungs
ĠApp le
let ter
ĠM er
T S
b um
m et
ĠWei hn
Ġtool s
ĠfÃ¼hr en
Ġv irt
ĠC ap
âĢ¦ ]
Ġlevel s
p reis
sche iden
ĠFebru ary
ĠB rit
ĠK lein
b it
Ġl ives
ĠDaten schutz
Ġein s
w ord
in f
Ġdar an
ĠCor ona
Ġgegen Ã¼ber
ĠJ es
it ze
Ġver k
es tern
Ġs ense
ĠK in
rit te
ĠEs sen
as ten
ro s
ĠK ing
Ġinclud ed
Ġge k
b on
ĠP et
ĠSch m
mer cial
Ġh or
i able
ĠS on
ir th
ĠDam it
k ungen
il s
Ġb us
ĠU l
Ġde ep
Ġam azing
Ġg ain
Ġob tain
ĠK Ã¶n
ĠM ain
Ġm m
Ġanalys is
ĠT yp
sp rech
f asst
Ġar g
los s
Ġbeispiel sweise
A B
Ġup d
ĠJ etzt
Ġl ate
aus s
Ġf al
Ġsaf ety
el ess
ĠD ir
Ġsug ges
Ġf lex
d own
l am
m od
ra el
mÃ¤ÃŁ ig
Ġfe ed
Ġb ase
al ien
Ġw ood
ve y
ĠM ach
Ġjed es
Ã ĸ
ĠR ock
Ġs ent
Ġim age
ĠP an
ak ter
ann er
um ents
ĠP rÃ¼
ell er
ek te
Ġh uge
arbeit et
Ġs ource
ic o
ĠR oll
- ,
ur al
Ġhigh ly
Ġ4 5
ook ing
b an
Ġsa w
duc ed
D es
p ass
ĠfÃ¼hr t
glich en
ash ion
ĠUnter stÃ¼tz
Ġakt uellen
Ġmulti ple
k reis
Ġgo al
Ġs ummer
ĠWe ise
ĠV is
ie ÃŁen
on str
Ġwor d
ĠBed e
i at
g g
Ġun ver
Ġan aly
ĠU N
M S
Ġbe ge
mar kt
Ġsch ed
ĠF Ã¼hr
ĠSch Ã¼ler
Ġand ers
k osten
ĠEr k
ĠS ter
Ġho he
pro du
Ġprof it
Ġde p
p a
Ġwe g
and em
r ight
tim men
ord nung
b ahn
Ġthe ms
Ġwrit ten
ĠM ax
Dies e
Ġsa ve
ĠA ud
Ġwork ed
ĠT ages
ent lichen
ĠFor um
Ġtr ip
att le
ĠF est
Ġpl ans
ĠO l
ent wick
land s
ind ing
Ġfl ow
Ġim med
im in
Ġits elf
Ġmeet ing
O ne
ĠW and
il en
Ġb ill
ĠÃ¤ hn
Ġph ot
ĠS u
ĠMus e
Ġauf grund
Ġn am
Ġthems elves
ĠH ause
Ġd ise
Ġin stead
ĠL icht
Ġc ash
i ers
Ġpre d
ĠB all
Ġb onus
Ġindivid uals
Ġnot wend
Ġcount ries
Ġver gangen
ĠInst it
Ġro und
Ġpre fer
f el
ig ent
ĠG re
ĠEr n
4 3
ubl ik
ĠVer kehr
ĠâĢ ĺ
ĠL aw
o der
Ġsom it
ĠSt rom
Ġg ives
Ġad j
ĠheiÃŁ t
ib ly
Ġ200 6
p en
ĠSte uer
Ġs ong
ĠW ett
ot es
Ġres ources
Ġexp ert
ĠA G
ĠÃĸ sterreich
ĠMÃ¼n chen
ĠA lex
ĠP lease
Ġse ll
fahr t
rÃ¤ gt
en a
te te
un ge
! "
ĠFre und
av es
Ġc ookies
ĠChris tian
Ġe mer
Ġz eit
av ig
ann e
Ġpl us
ĠTe xt
ad er
ĠErfahr ung
ĠPres ident
ĠP ers
b Ã¼
Ġhelp s
am mer
ĠF oto
crip tion
Ġrem ov
alif orn
teil t
Ġprovid ing
Ġsch l
Ġgef unden
ed eral
ig ur
Ġhand s
Ġer fahren
8 8
Ġd aily
ĠPro bleme
Ġp ath
h el
ĠFe uer
w ing
ies t
ĠI r
ĠM Ã¼
Ġander em
7 7
over n
Ġm orning
ĠRe cht
Ġpr ices
S P
ĠF irst
h aps
Ġre v
ĠM ond
ĠhÃ¤uf ig
Ġfor t
ĠW ed
teil en
it ial
Ġs qu
me hr
ne te
re ibt
6 6
Ġgo es
Ph one
Al s
em b
Ġreview s
Ã¤ chen
d oor
ĠT ur
ĠEurop a
Ġdis play
Ġl ost
ĠComm unity
Ġt ats
c ast
ond s
Ġf and
Ġa verage
ĠD ort
ord in
ĠG reen
Ġg re
i us
Ġcr usher
ĠIn nen
? "
Ġadv ant
Ġl aut
ĠDav id
geb ung
R A
ĠR ob
ĠW etter
Ġapp e
Ġs n
ĠR olle
Ġpart ners
ut s
ish ing
Ġav oid
Ġk lass
ĠOp en
fe hlen
f urt
re ise
I E
ĠA uss
fe kt
Ġem o
Ġd essen
Ġs end
Ġh ervor
ap ie
Ġs ituation
Ġeff ect
ĠUr laub
Ã¶ sen
ic ated
Ġdes halb
ipp ing
w Ã¤r
ĠK raft
it ag
5 00
ur r
ĠVer b
Ġch em
Ġpro gress
__ __
ĠM el
Ġabsol ute
it a
oll ar
Ġinvol ved
ograph y
Ġdefinit ely
ra gen
Ġbede utet
Ġc elebr
uÃŁer dem
id ing
Ġcomplete ly
ĠBit coin
ĠSo zial
ĠS et
v in
Ġsub ject
Ġat tention
Ġl aunch
Ġ )
Ġer hÃ¶
al og
ag o
richt ung
ĠKl im
Ġsub st
Ġer ne
Ġ ;
ĠS itz
Ã¶r t
ĠC al
Ġind em
schlieÃŁ lich
ĠR isik
por ate
fl Ã¤che
per atur
Ġcom ments
ĠRe i
Ġstren gth
Ġst ress
ĠO ver
Ġmy self
g in
ĠStre et
Ġsol utions
ĠS Ã¼d
it ness
ĠK ur
ĠAnd roid
Ġer reichen
ĠM at
Ġwer t
ĠP eter
s et
lie d
Un ter
ĠD ien
h ang
f Ã¼r
ĠL o
rit er
Ã¤ ss
Ġsupp ly
ĠSoc ial
Ġe mb
ĠAngeb ote
N o
ĠGen eral
Ġzw eiten
ĠM ass
as c
Ġspe ed
ĠTw itter
ĠMed ia
ition s
Ġdo or
Ġsp end
schl ag
ent y
ĠVer m
ĠC lass
ĠT ransp
ill a
ĠAn n
ĠBer g
ĠM ost
ĠE ff
b ark
ĠC oun
ĠGe bur
Ġser ious
ere i
Ġre fle
Ġs it
Ġfavor ite
letz t
Ġge geben
ĠK lass
k i
ra b
Ġh ar
as y
ges etzt
Ġf irm
Ġc ross
be wer
Ġvor hand
stand en
ĠN or
Ġcolle ction
Ġac qu
ĠTh omas
Ġmus ste
ĠF le
un ities
ig ten
d a
p m
ĠK reis
Ġfor mer
ĠN ur
ĠBede utung
ĠH o
ab hÃ¤ng
asch inen
al tet
ĠI st
Ġder zeit
ĠH y
S S
inc ip
ĠLe ute
weg s
Ġf la
Ġfr esh
h an
s m
D A
ĠC ent
ig r
Ġsol che
Ġthink ing
Ġge hÃ¶ren
Ġenc our
ch ter
ĠV oll
Ġpro pos
c ies
Ġspe ak
ush ing
4 1
ĠK ranken
ĠVer trag
Ġat temp
Ġpar ents
id el
iz iert
Ġdirect ly
ach ts
ĠR et
ĠT ier
ar es
Ġk om
ĠD ate
ĠM utter
p iele
jek te
k o
Ġent ste
ich ter
Ġinterest ing
F l
Ġ ul
ĠAl tern
f il
Ġa w
ĠD ist
Ġ[ âĢ¦]
ĠAr m
com es
ĠdÃ¼r fen
Ġwel ches
4 2
ĠF rÃ¼h
um in
Ġg reen
ĠVers ion
Ġsur pr
d o
Ġs us
Ġv e
ĠD re
ĠE very
ĠM erk
Ġ0 7
i j
Ã¼r z
oh ol
chn ung
ir ing
al ing
Ã¤nd ert
inn t
ess or
ĠFr iday
ĠL ang
Ġsec tion
or der
Ġlang uage
Ġge d
Ġf ant
ru it
Ġgra du
Ġno te
fÃ¼hr er
Â °
Ġganz en
tiv es
Ġre lease
kauf t
Ġorgan ization
ze igt
Ġs un
st ieg
5 6
Ġexp ected
f ten
lie gen
i very
Ġcon ven
Ġd ank
Ġdeg ree
Ġme ist
Ġwr ong
Ġblo od
z ub
y ond
ron ic
ist ry
Ġh off
ĠW ash
ĠDe velop
ĠDe partment
ct ors
ĠwÃ¼r den
ĠGÃ¤ ste
ĠS ur
ĠComp any
s es
ks am
Ġinfl uen
se e
b a
ĠW ien
ad es
Ġplay er
Ġexact ly
ĠW ald
Ġto wards
Ġh und
ĠMÃ¶glichkeit en
Ġd re
ĠS uche
Ġge ts
ĠI P
Ġsu it
ge gen
ĠG rÃ¼nd
5 9
ap ter
!! !
b as
Ġdec ided
ĠTh en
c ts
ges etz
Ġins besondere
Ġapplic ations
ĠB aum
5 8
Ġc ertif
ĠGen er
Ġemp f
ĠB oden
I s
Ġl ic
Ġcar ry
Ġus es
O r
ĠJes us
qu em
Ġpre c
ver stÃ¤nd
Ġinves tig
up s
re icht
ĠE UR
re l
ĠMin ister
ig te
ĠHam burg
uf fer
Ġbefind et
Ġson st
Ġg as
it iv
ĠÃ¼ b
ab il
ĠS eit
Ġd ed
Ġb ere
Ġmit tel
ra cht
p ark
V ID
ĠDies er
Ġsp ort
ĠErgeb nis
Ġerfolg reich
ĠB al
g ruppe
Ġgroup s
Ã¶ gen
ill ing
H ier
pro chen
Ġconsider ed
ĠSch ne
Ġl ack
ogra f
ĠCas inos
ĠSh op
Ġpl anning
ĠA P
asch ine
Ġgr und
Ġcomp lex
Ġresp onse
Ġent fern
Ġcamp aign
B C
Ġfind e
Ġfull y
Ġqu alif
Ġinvest ment
ĠRes earch
ĠC re
g ers
Ã¶ st
ĠS onntag
Ġdevelop ed
ĠA C
ĠS atur
Ġessen tial
Ġeben so
Ġge bra
Ġh Ã¶ch
ĠH Ã¤nd
if y
ĠL im
f it
ren ch
atis f
Ġsh all
ungs ver
ĠG ood
Ġ3 00
ust ain
ĠW ord
Ġbusiness es
Ġdr ink
Ġ0 1
ĠN ame
Ġdist rib
l assen
Ġfre qu
ĠG reat
Ġk ur
ff ic
Ġent de
ĠWh ite
ont o
estiv al
k u
Ġalle in
fra gen
nd er
u hr
Ġgu ide
ĠB i
hÃ¤lt nis
Ġ20 00
is ions
b ody
Ġfre uen
ecu tive
Ġsle ep
Ġpie ce
Ġf ail
ru ktur
Ġinter ested
st Ã¤r
Ġg iving
ungs m
Ġcon vers
w agen
Ġphys ical
pp ed
S c
it ary
halt ung
ĠG esellschaft
ĠM ess
lieÃŁ lich
ol den
und ay
Ġein igen
ul a
Ġstart ing
Ġst ates
ab s
ĠGes pr
5 7
Ġeff ects
ry pt
ĠHotel s
aur ants
ĠW ahr
Ġbring t
ĠNutz er
m ore
Ġd ry
Ġl isten
is ieren
Ġf ine
Ġbas ic
Ġaut om
Ġlim ited
i ant
ĠChrist mas
Ġn ation
Ġsuccess ful
Ġ200 5
ĠT able
ĠLie be
ĠO st
Ġsl ow
ti z
ĠErfahr ungen
Ã¤ um
c ont
off ee
Ġcorre ct
ir men
uch te
C ont
ĠW al
af en
Ġal ten
Ġrel ativ
ĠS ign
Ġfunktion iert
Ġf elt
id ents
Ġhoch wer
Ġgew esen
Ġpla ces
ĠP flege
ĠR ein
ĠOr ig
ĠL ife
Ġad vert
Ġj ud
w issen
ĠG ruppe
ĠH or
Ġentwick elt
b est
el te
Ġflo or
ĠFl ug
Ġzu dem
ĠS telle
ĠM iss
D R
ĠverfÃ¼ g
ach ing
ĠAss oci
B A
ĠStand ard
h ung
anc y
. :
ĠS uch
aliforn ia
Ġw Ã¼n
Ġin tens
Ġsome times
Ġpict ure
ĠB ur
ĠPolize i
d om
ĠOff ice
Ġcl im
ibr ary
ad y
fr is
l ike
ĠK redit
Ġwas n
Ġdem and
Ġcour t
h ouse
ĠNutz ung
rei ber
Ġbec ame
Ġmit t
f ield
Ġzus Ã¤tz
Ð ¾
Ã¤hr ung
Ġf ight
ĠSp aÃŁ
ĠStr ateg
ad o
I R
Ġbe gan
Ã¼ gen
Ġn ature
Ġg laub
Ġzun Ã¤chst
Ġr ates
Ġtrans fer
Ã¤nd ig
ti en
Ġc as
ĠAl t
ĠF en
ri ver
Ãľ ber
Ġinf o
r ik
ĠF C
Ġemploy ees
ĠK an
ĠTH E
Ġactiv ity
Ġr ights
Ġver g
b u
Ġp ages
p ite
Ġpolit ical
Ġins gesamt
k re
fr ast
Ġpress ure
ĠUnterstÃ¼tz ung
Ġso c
Ġsm art
i ately
Ġph otos
ĠK al
Ġg ere
ĠÂ £
Ġme chan
Ġtradition al
D a
ti ally
Ġrep orted
gel n
neh m
st a
Ġl Ã¤nger
ĠMen sch
itz er
ĠAn bieter
Ġbra ucht
cl ud
Ġb ist
bark eit
s ident
wirt schaft
ĠH ist
Ġs od
Ġm el
Ġass ess
ĠTr ump
ĠÃĸ ff
Ġprac tic
chn et
Ġb ath
ĠE duc
uf e
ust and
Ġen h
s am
gr if
Ġho hen
ste lle
Ġreg istr
ober t
Ã¤uf er
ken nen
Ã¤tz en
Ġvor her
ost er
ĠW ild
Ġbeg in
Ġvehic le
Ġconstru ction
Ġwar um
ĠB ahn
oc ol
al itÃ¤t
rÃ¤ fte
f ts
ĠAn s
it ten
Ġun ge
Ġl iter
ĠB ig
k or
ĠB aby
Ġstrateg y
lau ben
Ġdoc ument
ĠGeb Ã¤
Ġv Ã¶
Ġt ru
Ġcomp on
Ġwel tw
ĠCB D
d y
C he
Ġh our
ĠChe ck
Ġh arm
ĠNÃ¤ he
Ġtem per
Ġunderstand ing
Ġv iol
Ġhealth y
ĠO per
ĠEr st
Ġbes onder
we ll
Ġc ru
Ġele kt
irm a
Ġlo an
in i
ĠK olle
Ġex erc
ĠSch ule
Ġmind estens
an o
Ġeconom ic
Ġim ages
ĠL iter
ĠDeutsch en
ĠB ox
Ġze hn
ĠW ort
Ġdiffer ence
we ile
anc ing
la us
ĠP fl
ĠA v
201 5
mit ted
ant ly
Ġf Ã¤
ĠprÃ¤ sen
Ġvorhand en
ĠTipp s
Ġkit chen
aut y
ific ation
tig es
ĠK ategor
O W
ĠSp an
T V
bur ger
Ġtra de
Ġcreat ing
Ġvergangen en
k el
e ch
Al le
Ġmess age
Ġrequ est
ĠKin dern
Ġgrow ing
us ed
ĠInd ian
s uch
Ġst uff
ĠK il
D S
G en
Ġgar den
Ġcl ub
ĠV ersch
l ad
G o
Ġreg ister
Ġbenef it
w ide
Ġplay ed
ĠTeil nehmer
Ġpub lished
v ision
Ġde ad
Ġw oman
Ġd ark
Ġver gleich
Ġt ut
reib ung
ĠNie der
r up
Ġverb ess
Ġt en
Ġmov ie
ĠhÃ¶ her
sp e
Ġl en
Ġin kl
ĠÃľ bers
R ep
Ġver z
Ġsp ot
an lage
ĠE ing
Ġp aid
Ġde b
) ;
ĠPl us
Ġ0 6
Ġm other
er weise
Ġcom mercial
Ġgew orden
Ġg ave
ĠAk tiv
ĠW o
lin es
Ġfin anz
ec ause
Ġsay ing
Ġal t
Ã¤n gen
Ġin itial
Ġpro ced
W el
ĠBen utz
Ġne igh
ĠSpiel en
ar ily
ĠAn ti
uch s
br igen
Ġp en
ĠGr Ã¶ÃŁe
Ġey e
Ġdev ices
Ġjob s
ĠZ ur
Ġind ustr
ool s
ĠB ill
ĠImm obil
Ġd iv
ie laut
Ġbe ach
ĠCan ada
ĠS onnen
Ġs old
H er
Ġbeh av
ĠMicro soft
ick et
ĠSa ison
c m
ĠM id
Ã¶glichkeit en
Ġakt uell
Ġjeweil s
uss ion
ĠW olf
Ġâ Ĩ
Ġo l
ĠB us
ĠD isk
ĠE ast
beding ungen
y c
ĠJ ournal
ach er
Ġpart ner
Ġt ried
ĠV ors
Ġv s
pp er
Ġpre vent
Ã ¡
or ien
ĠIs rael
Ã¼ss el
ĠFol ge
Ġschool s
ich e
New s
Ġover all
Ġpur pose
stag ram
ac ity
Ġi Phone
al ent
z ig
ven ue
rÃ¼ cken
Ġemp fehlen
y a
ĠW il
ĠE ven
ĠR ichtung
ĠD ok
ĠMart in
Ġa im
Ġmov ing
k arte
ĠSch ritt
G r
Ð °
Ġrep la
ĠG leich
ĠUm welt
ĠMen ge
Ġmay be
ch mal
h ard
ĠA L
m ack
Ġev alu
ministr ation
ĠF otos
-- --
O C
Ã¼ck s
ĠK le
ĠM ad
al led
r is
Ġhe ard
ĠC alifornia
sh op
A fter
Ġd an
Ġro ck
ze ugen
Ġinter view
Ġtra in
ĠPolit ik
Ġre ve
ĠSh ow
Ġfolg enden
ĠW ein
Ġwa it
Ġer folgt
Ġst Ã¤r
Ġappro pr
d f
ol ar
ĠWohn ung
beding t
Ġex press
ĠT itel
Ġhe at
Ġopport unities
mittel n
ĠC are
ĠL oc
Ġg esehen
ĠK Ã¶l
. [
amm lung
ĠDeutsch e
Ġkein er
zeich en
ount ain
ĠG overn
ĠPar te
Ġan im
Ġ3 2
ĠA ct
ĠK urz
ĠerklÃ¤r t
ĠEng ine
ĠS tellen
ous ly
ĠTra ining
EN T
alt ungen
Ġer z
ĠVer l
ĠM em
b ro
Ġt im
r as
ĠF rei
ĠR at
Ġsh op
ĠG as
Ġdeutsch e
ĠBewert ungen
Ġex tens
V on
Ġoffer ed
Ġeff ort
t a
st ud
Ã¤ ft
w asser
6 8
ĠEurope an
Ġb aby
ĠSch laf
ol a
Ġwonder ful
fer enz
ĠH um
Ġd ream
ĠL eit
Ġsp orts
Ã¤n gt
ĠDis c
c are
ĠH D
Ġey es
Ġp o
Ã¼nst ler
yste me
Ġk omm
rol le
om et
I F
l s
ultur al
ĠBo ard
k ra
ĠK arten
ĠEn ts
Ġinst ru
D r
ĠD inge
Ġ Ġ
leist ungen
Ġac com
ĠMan ager
Ġdem onstr
tim ate
Ġc at
ĠDies es
Ġfeel ing
ap y
f Ã¤hr
m iss
g re
p lace
ĠEntscheid ung
Ġorgan iz
Ġentfern t
g rÃ¼nd
Ġp or
v ement
Ã¼tz en
ĠA p
Ġextrem ely
Ġgen ug
201 3
or ial
ar ante
ĠBet rieb
âĢ ĭ
let te
ĠG ames
ipp ed
ĠvÃ¶ llig
Ġn ied
ud em
Ġrel ig
Ġc ateg
ĠD azu
ĠA uÃŁerdem
ĠSam stag
ĠG al
ĠRe gen
E G
er o
Ġent halten
Ġown ers
ĠStra ÃŁe
ĠGemein de
ĠWirt schafts
ze uge
ĠMon at
Ã¼r f
il ft
ĠUnternehmen s
Ġz we
ĠD ein
sp ort
Ġassoci ated
Ġs yn
ĠPre ise
I I
Ġredu ce
ov ers
Ġf urn
ĠO F
ĠNach richten
be zogen
Ġpra kt
Ġcons ult
en ted
re u
ĠLeist ung
Ġer war
Ġac cept
fol gen
ĠPat ienten
N A
Ġst age
ĠWill iam
Ġg rand
D u
tell te
Ġl if
Ġl ots
ĠE p
Ġso gen
ĠComp uter
ĠG ame
ĠHe il
ar ies
201 4
Ġe cht
ro te
Ġd ur
ĠF Ã¶rder
6 7
Ġgo als
Ġd ig
Ã¶s ungen
ĠPart y
ĠÃ¼ bers
Ġpat tern
ĠVers and
ĠAn gel
ĠM ake
Th at
Ġs ort
Ġg lass
ick ets
Ġst orage
Ã¤l ter
itz t
Ġe urop
ĠAn ge
Ġoffer ing
ĠBesuch er
ter m
Ġaff ord
ĠBay ern
ĠIn halte
. -
ĠC H
f ar
ĠTele fon
Ġtats Ã¤chlich
ac es
c ul
Re g
ĠWie der
Ġf ab
uch ten
in st
d aten
Ġl ernen
om a
Ġs and
ler weile
l ies
Ġer fÃ¼
p age
I A
ĠAd d
m at
Ġsh own
ĠMein ung
erv ed
201 2
Ġbeg inning
m lich
S C
ĠS unday
U p
Ġdam age
Ġa ren
ĠE ben
u a
h i
ĠMon ate
ul f
Ġrele ased
Ġse ien
Ġadv ice
Ġparticular ly
ĠFre itag
ot to
Ġro b
ĠD amen
ĠVer kauf
ĠFer ien
on en
Ġs atisf
ĠHer aus
Ġmethod s
af e
ep t
h ere
ak tiv
ann el
at in
ĠMod ell
fer t
ik en
ĠT isch
Ġac tive
w ner
zieh ung
5 3
Ġc ulture
Ã¼ b
ĠSatur day
is her
Ġc opy
Ġdou ble
Ġpol ice
ĠB und
pf lich
ĠBe ach
Ġw ed
Ġeas ier
Ġzw eite
ot a
ĠS icht
Ġlov ed
Ġd at
ĠStud ien
Ġges agt
ĠMitglie der
la x
Ġeinzel nen
Ġapp rec
Ġregard ing
ĠL ED
Ġbas is
T C
Ġcontin u
Ġsur face
Ġcap ital
ĠAus bildung
Ġpay ment
d orf
Ġincre asing
k om
T H
5 4
ist an
Ġsp ann
Ġspiel t
h enden
ĠAustral ia
ĠGebur t
Ġges p
ĠP sych
Ġbro ught
Ġteam s
6 9
Ġstra ight
Ġc ards
Ġat tend
ĠUn ion
olog ies
ĠM aster
Ġde pos
Ġ19 7
Ġfin ish
ĠBes te
P re
find en
Ġimp lement
be w
v olle
Ð µ
Ġtru ly
fl uss
Ġp et
iel le
w ig
Ã¤m lich
Ġelect ric
Ġocc ur
p tion
Ġch urch
Ġ !
ĠMÃ¤n ner
oll y
att form
Ġinst itu
Ġcl ient
Ġse chs
ĠL Ã¶sung
ĠRo ad
Ġun it
it ure
Ġnum bers
Ġprim ary
ĠUn sere
ĠW ater
ĠSta ats
ĠJ ed
Ġs etzt
ĠS un
ĠfrÃ¼ her
ĠWash ington
Ġbe ide
Ġn ov
im ent
Ġcl in
Ġsl ot
5 1
ĠGl as
- )
ĠFl Ã¼
Ġincre ased
ĠP ack
or gung
k ur
h ilfe
m osph
ĠBas is
Ġt ips
Ġbek ommt
ĠunterstÃ¼tz en
Ġbe f
p erson
f a
ĠJahr h
Ġm is
Ġh y
u ted
ant a
A ber
Ġf at
Ġwel cher
Ġdise ase
Ġconn ect
Ġsc ience
ĠPra xis
er ous
Ġst ories
ĠG ren
Ġb and
we chsel
ĠunterstÃ¼tz t
Ġb irth
os oph
Ġmean ing
ĠDet ails
schein lich
ĠWebs eite
ec tions
ann en
Ġm otor
ĠBeg inn
Ġbe ein
ĠV iew
Ġpr incip
Ġcomfort able
Ġal though
ĠH und
l aden
Ġh Ã¤lt
un te
Ġd adurch
ĠKomment are
ĠEng land
our ney
e hen
Ġst ream
ĠkÃ¶nn ten
ĠG rand
Ġ <
Ġfamil ies
Ġstruct ure
Ġth ous
ĠS ituation
ĠV o
Me hr
fÃ¤ llt
ĠS ek
ĠMond ay
ĠF ood
Ġro t
ĠD ata
5 2
ĠKÃ¶n ig
ĠCh amp
Ġb ald
Ġph oto
t ritt
Ġprodu ce
f est
Ġm at
Ġ0 4
ĠLe ague
Ã¤ tigkeit
Ġb atter
Ġp ot
ĠM any
w ise
or re
h inder
Ġn immt
ier ter
es is
stoff e
ab et
ĠP unkte
ie ten
Ġsp ent
P A
Ġturn ed
Ġh op
aff t
Ġfin ally
n ungs
rÃ¤ ger
Ġw he
Ġcl oth
D on
ll a
Ġ3 6
ĠAl ter
in y
Ġf ran
Ġtrotz dem
Ġtit le
ĠH ard
L C
Ġr ules
leit er
Ġuse ful
ĠF ound
ĠGes amt
ĠN r
ugh ter
ĠFar be
Ġw ants
ĠCl ick
ĠAuf gaben
hn t
Ġag ree
Ã Ħ
ĠAuf trag
Ġ200 4
Ġre asons
og a
Ġverb unden
Ġre chts
ĠY ear
Ġannoun ced
ĠOr d
sch lÃ¤
ate ver
Ġtr ust
ĠBl ut
g enden
ĠGes etz
ĠTh anks
U M
os is
ĠErgeb nisse
Ġangeb oten
St ar
j ack
ĠHerstell er
Ã¶l ker
Ġdra w
Ġver ein
Ġc andid
Ġk new
ĠAn y
Ġer reicht
ĠF ind
ĠRe port
Ġm icro
ĠIde e
Ġstud ies
w altung
ĠSt at
Ġpr in
Ġh ilft
Ġs an
ĠN E
ist ent
Ġsp irit
Ġs av
lig a
un s
or gan
ĠtÃ¤ glich
Ġtra ding
Al so
ĠAntw ort
os ing
ĠFuÃŁ ball
Ġexperien ced
Pro du
ĠBe handlung
Ġvoll stÃ¤nd
Ġh om
s ing
ĠS up
Ġna he
Ã¤ ischen
ak ers
Ġdet a
ec tively
ach el
sp iele
Ġkomp lett
Ġac adem
ad ing
Ġerforder lich
ĠEle ct
r um
sch w
Ġev idence
Ġtechn ical
schlieÃŁ end
ĠSt ad
il es
ane ben
ĠCh in
ĠA ust
ĠBe wer
Ġbl ue
ĠR E
Ġsel ten
Ġer n
Ġper fekt
ĠL ast
othe k
ĠP S
ĠM Ã¤d
ĠJ ames
Ġge pl
ou ch
V ers
Ã¤uf t
Ġakt uelle
ĠMon aten
h ow
Ġgreat er
Ġlook ed
g rad
Ġlar gest
Ġb udget
o very
Ġst ation
zie ll
ht ml
M od
ig lich
Ġprom o
Ġsch eint
ĠP DF
ersch aft
Ġ0 5
Ġdel ivery
ie ll
Ġste ps
Ġgener ally
ĠO ther
tw och
Ġn Ã¤mlich
Ġwind ow
Ġar m
Ġpict ures
Ġcomp ared
Ġimmed iately
Ġop in
ĠL iste
Ġs up
k y
p ot
Ġrich tige
ro ugh
anc en
Ġview s
vers e
Ġent scheiden
um n
Ġg rÃ¼
ib e
Ġear lier
ur m
ink en
sch rift
ĠT urn
av a
Ġrele vant
ĠL et
Ġbe yond
ic on
Ġinc ome
pr Ã¤
B ook
oh ann
Ã¤ her
Ġacc ur
D P
ĠBl ue
at tet
ĠSc ience
ĠT im
Ġd ress
ak te
ĠZ eich
Ġset ting
Ġrep orts
te uer
ues day
Ġste el
Ġmon itor
Ġfe ll
C on
ĠL ear
em at
ĠInter esse
Ã¼ m
ĠMuse um
ĠFar ben
Ġl ines
O b
urs day
id ers
rif ten
D o
ĠEduc ation
Ġcell s
ĠR Ã¤
r iff
Ġit em
T E
om eter
Ġa ward
Ġne arly
Ġmo tiv
Ġweek end
res p
iti ative
Ã¶ff net
Ġhim self
ĠB ran
ob by
l as
ĠP osition
entr um
ce ed
ĠRe v
Ġent scheid
Ġe th
geb iet
ĠTex as
I nd
ĠCour t
ĠR os
Ġaus gest
Ġsele ction
ĠCh ance
Ġan ges
Ġw und
ĠT on
Ã¼s se
tell igen
Ġmeas ure
itu de
Ġaus gew
Ġim ag
f ast
Ġges etz
ab in
Ġa head
s ie
Ġfe et
sch ieden
Ġth reat
eh men
ĠEn ter
x im
Ġex isting
ĠR oman
ĠP ublic
Ġhelp ful
al ed
Ġb ur
g ent
ĠE ss
p olit
Ġchange d
ĠC ustom
Ġstat ement
wÃ¼r d
Ġexp and
ĠF ire
it iz
Ġal one
Ġs uffer
ĠA sp
Ġgel ten
ĠâĨ Ĵ
Ġend lich
V D
The y
Ġbe ant
ach s
ĠF ot
Ġprote ction
Ã¤us er
T ube
ĠR ou
Ġdurch ge
Ġfact ors
Ġpat ient
n o
Ġbro ad
iz z
ĠVer wendung
ke y
ĠCO VID
ang s
it ar
iden tial
Ġadvant age
it is
Ġno tice
ĠG est
b i
ĠK urs
Ġent ry
Ġw ild
Ġdan ach
ĠT ime
ĠVer bindung
e ff
ĠV ideos
Ġorig in
Ġun ten
Ġpos ted
yp e
d ed
ĠC ode
C D
ĠschÃ¶ ne
Ġ3 8
Ġlim it
Ġverste hen
ĠV iele
Ġtalk ing
ĠUm gebung
il ing
ĠAll er
z ul
ĠHer ren
Ġjeder zeit
S E
we gung
Ġresp ond
Ġth ank
ner stag
9 8
v an
Ġw es
ĠIde en
Ġrequ ires
ĠÃĦ r
Ġso ft
Ġges tellt
k tiv
Ġsur round
ĠD at
ĠA R
as ion
ten ance
zeug t
Ġschw ier
ĠWeihn achts
s a
av en
Ġun bedingt
ĠEx p
Ġtransp ort
haus en
ĠR ot
opp el
P ress
Ġsp read
ib el
Ð ¸
ĠEr d
Ġcrit ical
Ġlen gth
Ġgu arante
Ġfil es
ie b
Ġgleich zeitig
Ġconf irm
ielaut omaten
it ect
P C
ĠSt ock
D aten
Ġallow ed
ĠP op
z ess
Ġs orgen
ĠBe k
ist ischen
Ġto ll
Ġs inn
Ġwe ar
um ber
R es
Ġqu arter
ĠB itte
ĠSte in
Ġw ife
m and
Ġt a
f angen
l an
h old
Ġf arm
Ġrespons ible
p ol
Ġwe ather
ĠCoun cil
Ġe at
ic er
Ġqu al
Ġ ing
nes day
ĠMit te
Ġp ool
Ġb illion
ic ine
ĠAd v
6 4
ĠAnd re
Ġsl ots
Ġmid dle
Ġser ve
Ġ15 0
ĠK aff
Ġresp ect
em a
ien cy
Re ad
Ġestab lish
ling en
Ġs ustain
Ġtre ffen
ver band
ier ungen
ĠF und
Ġer h
ĠV ir
ĠK rank
g arten
Ġtra gen
ĠD ach
h y
Ġgew innen
m o
Ã¤n z
Ġsch affen
Ġsel ber
entwick lung
ĠHa ar
Ġ4 8
ri an
Ġaltern ative
Ġfor ce
stand ing
Ġstr ugg
ath ol
for men
ong ress
l uss
ĠStra ÃŁen
ly mp
Ġper haps
Ġappropr iate
s eit
mer zen
ĠR und
ĠK ons
ĠJ o
jÃ¤hr ige
Ġh us
C O
Ġf ahren
T M
Ġeinz ig
Ġpower ful
ul d
ĠD ra
Ġp asst
f ree
l ation
ĠMus ic
k raft
âĢľ ,
Ġc old
Ġman age
Ġth anks
ound s
er klÃ¤rung
Ġprote ct
Ġf rÃ¼h
M ed
Ġra ce
in ary
Ġh ospital
Ġer kennen
ĠAssoci ation
Ġp oor
ĠE st
ĠFahr zeug
ĠKÃ¼ che
Ġact ual
z ir
20 22
ĠVer antwort
ĠGerm an
fol ge
Ġ0 2
ĠermÃ¶glich t
ĠCh em
Ġm om
Ġchallen ge
ĠD ich
tell ten
ĠAut or
ĠP ak
os sen
ĠPro te
fre und
ĠIhr es
ĠSt off
ly ing
im p
Ġsch reiben
Ġbest Ã¤
k Ã¼nf
ĠW eitere
Ġne uer
Ġhund red
ĠU se
T op
ĠR obert
Ġjeweil igen
leb nis
ĠH ig
ĠG utsch
Ġsele ct
ĠFe hler
Ġzuf rieden
ĠAntw orten
Ġhelp ing
Ġkn app
ĠAn gaben
Ġde te
Ġan z
Ġhelp ed
Ġst one
Ġdec or
ĠP unkt
Ġmod els
iel t
n am
leist ung
Ġe hem
ĠSupp ort
Ġre ch
ĠT om
Ġeff icient
zw ischen
S A
Ġtarge t
be k
Ġbe wer
as ts
Ġzum indest
am ous
el ten
Ġzie mlich
ĠO der
ĠK a
ĠT at
Ġinde pend
r t
ĠK it
ĠK er
Ġr at
ĠC ard
ĠW all
Ġweltw eit
Ġ200 3
ĠMe er
ĠE qu
piel t
Ġbra uchen
ĠIn stagram
Ġcan cer
Ġwich tige
or ben
ĠSch e
ĠZeit punkt
U L
ĠH ann
Ġco ach
leit et
F re
ĠAn wend
D E
Ġ0 3
Ġex cl
Ġs ter
Ġun c
S G
kt or
ĠP rom
ik t
bs ites
ts eite
Ġsol id
ĠM Ã¶
ĠAll tag
Ġw ider
Ġlie be
ĠSt Ã¤d
ĠPriv at
iv ely
Ġrich tigen
Ġbesch Ã¤f
Ġw rote
ĠK rieg
Ġele ments
ĠG ruppen
Ġback ground
Ġsur v
ĠBet riebs
ĠGe h
ĠW ood
uck y
ĠVol ks
ĠFrank furt
Ġmin ing
Ġcap acity
N E
ĠF irma
i ance
Ġbott om
Ġver Ã¶ffentlicht
i i
al a
Ġf ans
ĠCh urch
Ġintro du
ĠRest aurant
ar th
Ġal te
ĠIs land
ĠS or
ĠRei he
ĠG lobal
ac ts
ol es
Ġcommun ication
ĠC y
Ġdam als
ĠWirt schaft
ĠM os
Ġn orm
Ġtr ial
Ġg ift
ĠF irmen
ie ÃŁ
Ġf ather
Ġsch n
Ġver tra
Ġre lax
ĠAn zahl
ĠM ail
Ġconn ection
Ġfind ing
ain t
Ġse ven
Ġgra ph
Ġa p
Ġthere fore
ft ung
ĠGerm any
Ġdr iving
ut ing
Ġass ign
ĠBeruf s
ĠDevelop ment
Ġsc en
Ġsec ure
ĠA uÃŁen
end et
Ġmil es
ĠPe ople
timm t
ĠFunktion en
Ġbe hand
tig ten
Ġann ual
fass ung
ĠVer brauch
us ter
Ġbelie b
v a
z Ã¶s
Ġinc red
w as
Ġd ynam
ĠPro v
ĠR oy
Ġgen ommen
ern er
ĠA ccess
Ġlet ter
g u
ĠIn form
ĠN un
t te
ĠJ ose
or a
F A
all o
ĠPar is
z if
Ġcreat ive
Ġm aster
ur o
formation en
k ir
ĠKÃ¶l n
ĠM as
ĠM oment
Ġcon cept
Ġtra ffic
Ġachie ve
ĠSt aff
ĠNet work
lie ben
Ġcould n
ĠÃ¼ber n
f riend
Ġl Ã¤uft
Ġcoll abor
ĠW unsch
unter nehmen
Ġsh ared
ĠL ight
Ġf ear
Ġestab lished
ĠGed anken
he b
ver kehr
ĠK ra
ĠL ove
ĠgÃ¼ns tig
L A
201 1
G et
atz en
Ġneg ative
N ow
Ġgesch rieben
Ġad op
zus tellen
ĠM obil
ĠMitglie d
Ġg ern
n y
ĠWh y
ĠW Ã¤hrend
ĠZ udem
ĠF el
ac tions
Ġret ail
ĠSp ecial
Ġsus p
ĠZ ahn
ony m
ĠM eter
Â ·
S ome
Un sere
ĠT O
B es
Ġd einen
it ors
ĠAn t
lauf en
Ġo wner
Ġer ziel
richt ungen
Ġw Ã¤hlen
ach st
Wh ile
aus o
Ġeconom y
ĠF rench
K on
Ġgleich en
Ġgew Ã¤hr
ĠAb out
St ud
ĠZeit en
Ġh omes
Ġpe ace
ĠCom ments
S V
L AN
ĠAfric a
iqu es
Ġent ertain
C omp
Ġp ush
Ġdenn och
Ġcomple ted
ĠSch wer
Ġdire ctor
statt ung
ank e
Ġpre par
ip es
form ance
Ġc offee
ĠR en
enn ung
ĠDire ctor
k r
Ġw inter
ell ow
ver ein
Ġletz te
ĠHer zen
9 7
Ġbet re
u ern
ĠM ie
ĠIn n
ĠMont ag
â Ĩ
Ġlaw s
or b
Ġbuy ing
le men
lie b
Ġup date
Ġer inn
ĠImmobil ien
Ġb ess
ĠMe x
Ġ4 00
ĠR ab
gel t
ok al
ĠTechn ik
om ain
Ġdeterm ine
Ġmov ed
ĠQ ue
t d
Ġander es
Ġche ap
Ġpres ident
az ine
Ġmention ed
ĠR hein
ĠC onn
ĠH ot
ĠÃĸ l
ĠAng st
at ers
oper ation
Ġlar ger
ĠAn meldung
ES T
ay er
d r
Ġsp ring
Ġgen utzt
] .
ĠB is
ver b
Ġest ate
ĠKir che
or row
ic ious
ĠL os
C hr
Ġsh ot
ĠS ong
Ġ: )
Ġbelie bt
and a
ĠÃĦ nder
pp ing
ĠBrit ish
ĠverfÃ¼g bar
ĠschÃ¶ nen
j en
techn ik
leid ung
Ġtest ing
Ġn orth
re it
Ġv ideos
az z
Ġwichtig sten
ĠL u
Ġcontra ct
Ġun er
Ġp ul
Ġsch lieÃŁlich
T r
Ġzahl reiche
Ã¶ p
Ġsein es
B S
ĠF ried
! )
g art
P er
iz eit
i h
w ers
ap ers
us tice
il den
Ġvo ice
Ġfre und
M ore
ĠB rowser
ens es
Ġj ourney
Ġnum erous
Ġhand le
Ġ7 5
ĠIn nov
Ġrep air
f an
Ġsor gt
ar io
In ter
Ġd aneben
Ġc ry
Ġsee ing
Ġhig hl
ĠI ll
On line
Ġcour ses
Ġoff iz
ĠTechn ology
ĠInst all
Ġbestimm ten
ĠTem peratur
omm od
ĠIn sel
Ġhus band
ĠP or
Ġbeg innt
Ġhigh est
l or
ĠT uesday
ĠSp orts
G er
le te
ĠA ff
ill er
ĠS ache
ĠVer t
Ġaus schlieÃŁlich
Ġdi agn
Ġeff orts
Ġro ll
ĠSen ior
wohn er
ĠN ote
Ġ rom
Ġn ah
ĠZusammen arbeit
Ġwh ose
tier te
Ġim press
e te
pf licht
ik i
ĠGe fÃ¼hl
Ġled iglich
ic ies
Ġhe u
ĠSec urity
mit tag
br uch
Ġhin zu
Ġen able
Ġbefind en
ĠB lock
Ġpl ants
Ġopen ing
ĠA tt
Ġbed room
Ġtro ub
ĠSer ver
ĠnÃ¤ch ste
Ġunter wegs
Ġzus Ã¤tzlich
Ġsh opping
ĠUS B
ĠSp r
Ġf ro
ohn t
ethod en
Ġbe achten
Ġa f
sch au
Ġdurch aus
Ġwork ers
ist ische
ĠS ach
Ġs ources
Ġnach dem
ut ers
Ġwe bsites
Ġd ram
ĠH off
ĠL ong
Ġg ran
Ġdis p
tiv ity
Ġan zeigen
ĠL ord
ie fer
ger icht
ĠRe ich
ĠSo und
ĠfÃ¤ llt
Th ese
De utsch
e llen
N ov
ĠOn ce
i ro
amb ling
Ġ ign
ĠR iver
ĠReg ierung
Ġprocess ing
M A
m ing
ach te
ed y
iqu id
ĠL ager
ĠFlor ida
Ġr ank
z ip
ĠB ett
Ġfl u
Ġg one
ĠAut om
w est
as p
ĠFen ster
M ay
ĠAn spruch
Ġbig gest
F L
w s
Ġerne ut
ĠL ou
re te
Ġo k
ch em
de ck
ĠhÃ¤t ten
ĠS atz
Ġl ose
Z u
Ġclass es
tern al
ĠInstit ute
k arten
ĠauÃŁer dem
C C
Ġroom s
wer te
G esch
ĠSal z
ĠC am
ĠTh ursday
ĠGesundheit s
ip l
g ment
Z um
ĠS inn
Ġzie hen
Ġbe quem
etz te
ĠProz ess
M P
Ġsod ass
Ġdire ction
Ġchallen ges
Ġsw itch
A cc
Ġbestimm t
Ġwed ding
Ġman ager
ĠTh ank
Ġser ver
Ġserv ed
re me
ĠL Ã¶
ĠVerkehr s
Ġ3 3
Ġmov ement
ĠMaÃŁ nahmen
ĠRep ublic
ĠM ary
ues ts
Ġfig ure
r ate
ĠJ ohann
Ġhe avy
ĠB il
Ġc amera
alle y
ĠgrÃ¶ÃŁ ten
Ġsh aring
Ġob vious
Ġd river
s Ã¤tzlich
ĠSicherheit s
Ġehem al
ĠM obile
wir kungen
ĠP R
ber ger
Ġste ts
Ġoper ations
ann ed
ĠÂ ©
ĠSch warz
ĠC ra
S piel
ĠI d
Ġfund s
ĠKomment ar
Ġhappen ed
ĠP il
Ġsl ight
ĠYou Tube
Ġob j
ab end
ĠInf os
ĠKar te
s ystem
Y our
Ġ3 7
im inal
ĠgroÃŁ er
Ġexperien ces
Ġdr ug
F ra
l og
ĠpersÃ¶n lichen
Ġlie ber
ĠCh ild
Ġproduc ed
Ġf ederal
z iert
ĠF ull
sch er
ĠB io
ĠK unde
Ġra us
Ġadj ust
Ġf ashion
ĠLink s
Ġabsolute ly
Ġauf s
ĠB on
z we
ĠT ests
ĠF Ã¼
ĠS ince
fen se
Q u
Ġd rop
ĠKom b
Ġmet al
Ġf allen
ĠB ern
ĠGer Ã¤t
pr ise
ĠK ampf
Ġth r
ĠSp rache
Ã¼tz t
Ġlearn ed
Ġadv anced
Ġp ow
Ġtr uth
w eit
Ġfolg ende
Ġv an
ĠWe ek
jÃ¤hr igen
Ġdie t
ĠD E
Ġpro sp
ac tive
Ġfollow ed
rom e
y e
Ġres ist
ĠJ a
Ġha ven
d as
ĠR and
Ġus w
etz ungen
Ġmem ory
Ġt ask
inz ip
ĠP age
ol z
Ġgu ys
ĠAller dings
ent liche
H otel
Ġk rit
heit s
Ġschle cht
un ction
ent ur
fÃ¤h igkeit
Ġorganiz ations
de utsch
ĠL ux
ĠBer atung
Ġc entral
Ã¶r ter
Ġh alt
ĠMark en
ĠOrig inal
un ately
Ġsp rechen
Ġrem ove
Ġzu letzt
ĠmÃ¶glich st
p rech
ĠMÃ¤d chen
Ġpie ces
Ġr uh
Ġunterschied lichen
W ar
ĠM ik
Ġfriend ly
tig te
Ġlead er
Ġdar in
ĠO h
Ġsoc iety
h ende
ĠM und
Ġn Ã¶
ĠH ill
mer z
Ġto lle
ĠS oll
her n
B et
Ġinsp ir
ĠB rÃ¼
g ien
Ġp ull
Ġsti ck
v Ã¶lker
l ern
ĠVer d
Ġwo bei
ĠV arian
ĠL ake
Ġsepar ate
Ġk os
Ġaff ect
ĠHand y
Ġtop ic
Ġb ag
Ġh yd
Ġ3 4
ĠChin ese
ĠBewert ung
Ġb orn
ĠM att
v iel
Ġst y
S er
Ġmitt lerweile
ĠWed nesday
le bt
en ken
Ġstand ards
ers eits
ĠK ey
ĠverfÃ¼ gt
crip t
i ÃŁen
Ġf an
uck er
ĠE th
man agement
i xt
Ġexper ts
Ġpop ulation
Ġpost s
mer ksam
Ġsp iele
P ost
ĠT ar
re hens
Ġs em
Ġerwar tet
la re
ĠGe org
ĠW Ã¼r
Ñ Ĥ
Ġb urn
or al
g esehen
Ġzu vor
Ġb reat
utz en
m und
ĠAb schluss
is ode
ĠAn wendung
Te chn
Ġr ent
Ġgesam te
Ġdevelop ing
imm el
ĠH an
Ġl Ã¤ng
ĠR om
Ġwas te
ĠBÃ¼ ro
ro ck
ĠAN D
Ġs itu
Ġbestimm te
ĠÃľ b
en zen
r ick
Ġfin ished
Ġrest aurant
ĠV ier
ĠE ach
ĠF eld
is tet
st ar
Ġs ector
Ġk ept
Ġmil itary
Ġpr int
Ġbal ance
Ġthough ts
l isch
Ġ Ã¤ndern
ĠBed ing
on om
ĠGespr Ã¤ch
ĠBe im
ok rat
Ġunser es
ur b
B eit
I CH
Ġgesam ten
Ã¤ ten
Ġval ues
gra de
Ġwir t
Ġfac ilities
Ġsol chen
Ġfor ms
ĠE ind
ĠermÃ¶glich en
T A
ar tige
och ter
Ġsug gest
Ġnam ed
Ġfoot ball
" -
ĠAr zt
Ġgebra cht
ink s
Ġcomp ar
Ġpl enty
Ġdis app
est yle
ĠPr ice
ĠV al
ig ungs
Ġwould n
ĠTransp ort
a uch
In nen
Ġnotwend ig
Ġcar s
Ġ 00
v o
gen er
Ġver antwort
ĠC all
te id
el ine
ag ra
Ġc ook
H ere
= "
ent ure
Ġtyp ically
ild ing
S he
ĠH ans
n ot
k Ã¼
Ġlo ad
Ġdec ide
Ġgu ess
Ġvers uchen
ĠS Ã¼
ĠSpe zial
C om
Ġc atch
Ġwa iting
g ro
war en
unk ten
ĠB or
sch ung
ĠIn tegr
Ġverbess ern
ĠLeist ungen
f unktion
ste uer
ĠGebÃ¤ ude
ĠS C
ĠSchl uss
ĠMit twoch
ĠVer k
Ġdar um
201 0
Ã¶ tz
ĠWissen schaft
un ning
ill age
Ġkeep ing
l iste
Ġnach hal
ĠInd ustrie
' ,
ĠUnd er
Ġfa ith
ĠF rÃ¼
zentr um
Ġj unge
ition en
ĠPol icy
age gen
ĠJ ew
s burg
Ġswe et
ier enden
Ġautomat isch
ier ende
Ġcoun ter
ĠC ookie
r d
Ġon to
Ġprep ared
Ġlie b
Ġstat us
ĠM ulti
Ġcap t
ĠV ater
ic kt
Ġ1 000
Ġex change
u hl
Ġind ic
as ure
Ġre ality
uz z
Ġander er
Ġentsprech end
Ġ200 2
ĠSt utt
Ġproper ties
ĠBe zug
ĠL aut
Ġclean ing
Ġconn ected
ol ine
ĠFamil y
ĠGu ide
ho ben
r asch
fra gt
P art
ĠkÃ¶nn t
ĠV en
Ġra p
ĠS inne
ĠTod ay
Ġl ux
ĠBÃ¼ cher
Ġi P
Ġol der
Ġexerc ise
Ġt ag
ĠB M
ation ale
Ġm ission
C E
be g
Ġfor eign
Ġeinges etzt
Ġman chmal
Ġmach ines
Ġg ather
ĠÃ¼ brigen
ĠIt alien
ĠPh ys
ĠS onder
Ġan gen
zeich nung
Ġim pl
r id
ĠK enn
ĠG ut
Ġcont ains
Ġa ware
Ġbut ton
ĠFre ude
zep te
ĠVor auss
ot ing
ĠO lymp
eth ode
Ġcomp la
Ġhol iday
fÃ¼hr en
Ġw est
ĠS ens
ium s
tier ung
Ġm ist
ur ers
Ġpain t
ĠG rad
Ġaud ience
" )
ĠD eine
z te
Ġvisit ors
ĠAn forderungen
ik es
Ġl ag
Ġwh atever
ĠHe ad
abet es
rÃ¤ f
Ġge kommen
ĠE vent
ĠK rit
Ġpres ented
ic ago
ĠM ov
Ġacadem ic
Ġc ast
Ġcover ed
Ġteach ing
à ¤
ĠMe ister
Ġ3 9
ou p
ud d
Ġerw arten
ĠI D
Ġcall s
erv ation
Ġwel come
Ġl isted
Ġer kl
ĠPro ject
ĠSl ots
ĠHal b
il i
Ã¶ t
Ġoper ating
ĠFre unde
ro gen
Ġdet ail
la pp
ĠS ar
Ġent hÃ¤lt
bie ten
Ġf ram
ĠUr s
Ad resse
Ġsuch t
bl og
ĠC entral
Ġwen ige
Ġsub sc
Ġ1 20
n ungen
Ġher r
ĠO ld
is co
Ġsmall er
Ġd ish
ĠZ usch
ĠS af
ĠAuf gabe
Ġb ow
Ġsh ape
r ical
Ġ( "
ĠCol or
ĠFÃ¤ llen
ĠDon nerstag
pro gramm
t ten
Ġbra in
lin ik
Ġdescrib ed
a ult
if er
6 3
Ã¶ ne
ĠInter view
.... ....
g ende
Ã¤ den
ĠEin sch
ĠSch Ã¶n
ĠGra f
Ġde partment
Ġex hib
ennt nis
w al
sch riften
fol io
Ġapp s
Ġsched ule
ziel le
ĠS til
Ġcharac ters
Ġmajor ity
ĠS n
u ert
T ER
Ġatt ach
Ġt end
Ġher unter
ĠH en
ĠAc adem
Ã¶ se
zÃ¼ glich
N ot
UN G
ĠZusammen hang
ling t
Ġe ight
Ġpla ced
ĠF akt
ĠVer tre
âĢ ŀ
ie llen
Ġassist ance
Ġo d
und ert
Ġun abhÃ¤ng
Ġers tellen
u ber
Ġsc ore
ĠC up
Ġvor bei
ĠH on
Ġartic les
c ar
Ġden ke
IN E
ĠRes p
Ġcover age
Ġs ah
O D
Ġfind est
Ġsh oot
Ġf ish
ĠL ook
Ġsch warz
Ġgen ieÃŁen
Ġgen auso
geb aut
ĠTra um
ĠFahr rad
ĠUn ser
Ġf rag
ĠV it
ĠKn ow
Ġhapp ens
Ġfab ric
Ġdivers e
Ġprofession als
Ġvers ucht
ĠVers icher
ĠKre uz
ĠZahl en
ĠKon z
r ist
it ts
wer ke
Ġmarket s
Ġpass ed
Ġteil weise
or te
Ġinnov ative
ĠIs lam
Ġth us
ĠW in
gew Ã¶hn
ak s
w ald
ĠB ecause
ã Ģ
Ġle b
ic iency
ĠF ore
Ġ5 5
gesch ichte
ĠAll es
stÃ¤nd e
ĠMet all
K E
f s
ict or
Ġ200 1
ĠSp ring
ĠZwe ck
Ġconc entr
Ġcent ury
Ġpass ion
Ġsy mbol
ĠUnivers itÃ¤t
ĠExper ten
6 1
w esen
ĠM P
ĠHer bst
ĠAl though
F in
Ġn ames
B ild
w el
Ġear th
a e
bereit ung
Ġoper ation
Ġele ment
v ersch
ĠâĢ º
Ġregel mÃ¤ÃŁig
C ar
ĠSt rand
l ife
z Ã¤hl
Ġob wohl
ĠComm ission
k urs
ĠÃ¶ff entlichen
ĠV an
it Ã¤r
n ern
as ks
ĠJob s
ĠHoch zeit
Â ´
Ġbe comes
Ġfe es
stand s
ĠM orgen
ĠRad io
h as
C A
ĠC A
Ġsm ooth
ĠVor teile
erm an
ĠGesch mack
ĠWir kung
l ight
Ġb ought
Ġpractic es
er em
ĠDes halb
Ġihr es
ennt nisse
Ġgar an
el er
Ġdist ance
legen heit
Ġgr atis
v ol
ling e
Ġrep e
Ġac cep
ĠCl oud
Ġo ber
H and
Ġw ire
8 5
Ġcommun ities
Ġph il
Ġsp l
ĠGar den
ĠIn halt
Ġwind ows
ĠElekt ro
hr t
Ġn avig
Ġs ession
Ġra re
S eit
Ġt ree
Ġse lling
Ġpass iert
ĠVer tra
Ġentwick eln
ĠTra in
ĠE uch
J an
Ġf ill
Ġposs ibly
mer ikan
Ġb ul
ĠE is
Ġd iss
ĠHinter grund
ĠW atch
ĠRisik o
Ġqu ant
W eiter
l ook
Ġt ests
Ñ Ģ
es ome
Ġgew Ã¼n
ig a
J Ã¤hr
S U
Ġe gal
Ġent w
st Ã¤t
ag ers
ĠS om
Ġv en
Ġcaus ed
geh end
ĠGer Ã¤te
Ġengine ering
if ts
ann ung
ĠTra iner
Ġaus reich
eg as
Ġpar ties
Z ur
Ġmehr eren
D urch
g ern
vers icherung
Ġform at
ruct ure
ĠW ider
Ġverl oren
Ġt ruck
k ont
Ġ2 50
re m
Ġl abor
av irus
Ġmain tenance
fl ug
ĠO N
em it
ĠF ab
Ġproper ly
Ð ½
ĠM A
Ġcontin ued
z ent
em e
Ġexp ensive
Ġtemper ature
Ġdo ctor
Ġdein er
Ġp urs
w ith
im ension
Ġf le
at o
m Ã¼
Ġwen igen
Ã¼ss eld
sch uhe
ĠW ander
ĠDe v
Ġthous ands
Ġgut er
Ġrem ains
F C
w art
Ġt on
g yp
Ġcompet ition
ath emat
Ġsele cted
Ġj ournal
Ġfall s
ĠGovern ment
D en
ord net
Ġfe e
zahl t
Ġbis schen
rip t
ial og
Ġd unk
ĠbenÃ¶ tigt
ĠT it
Ġknow s
ĠFre izeit
Ġn or
ĠTra dition
Ġtechn iques
sprÃ¼ n
ĠT imes
Ġacc ommod
ff er
Ġstrateg ies
ĠAn trag
fr ont
Ġing red
Ġsen ior
Ġded icated
ĠM ode
ess ions
ab ilities
Ġadd ing
Ġm ap
mittel t
ver lÃ¤ss
Ġgut es
Ġp al
all s
ram m
ien ces
ĠW Ã¤r
Ġbes tellen
f amil
Ġp oker
mer k
Ġclos ed
Ġl ab
Ġve get
G es
Ġprocess es
Ġm ort
ĠIn sp
ĠHe iz
Ġbes ondere
ein er
r ast
ĠArbeit en
Ġd anger
Ġk id
Ġre pl
Ġlo ans
ĠL Ã¤ndern
ĠTerm in
Ġgirl s
eh Ã¶r
p unkte
Ġer ster
ur a
Ġw under
umen te
Ġidentif y
ĠD oppel
7 9
go ing
Ġvar i
3 00
ĠKlass e
gang s
Ġf av
Ġvis ion
ed om
Ġsy mpt
Ġdec isions
h ost
an lagen
apt op
Ġstre et
Ġcr is
Ġst ars
Ġindepend ent
g ner
ĠSt ore
ĠPrÃ¤ sident
Ġher z
Ġ ï¿½
le ct
Ġso uth
ĠLeist ungs
' .
Ġex ter
W eitere
ĠHand el
Ġent gegen
s b
ĠW ohl
ĠVor teil
E d
los en
Ġfant astic
" :
ĠSta at
ger y
Ġwahr scheinlich
ĠVer halten
Ġwir kt
lin ie
Ġeven ing
m ier
Ġclaim s
Ġir on
m aÃŁ
d et
Ġl it
ier n
Ġf amous
l ast
Ġzu erst
ĠS yn
ĠA D
ĠBeit rÃ¤ge
Ġsp ending
ĠVer Ã¤nder
ĠW omen
Ġaut o
ul ations
Ġde bt
ĠM and
ĠErw achsen
ern t
ĠD iv
r s
ĠFound ation
ĠWochen ende
ĠU kra
re in
n el
Ġda ughter
ĠS ystems
Ġinst r
out s
ĠbenÃ¶ tigen
Ġ Ã¤lter
ra p
ĠGe orge
ul ated
Ġhervor rag
ik al
Ġcontin ues
ĠV alley
g ruppen
kn own
Ġm ental
ĠDien stag
Ġes tim
v ors
Ġc ore
ĠAk tion
on avirus
Ġm orgen
lin ien
ĠLes er
Ġam b
ĠBu y
ĠSm ith
ĠProf ession
Ġal ter
Ġwar ten
press um
opp ed
is a
Ġdurchge fÃ¼hrt
b ringen
te ten
ĠT ab
Â ©
H allo
Ġgesch lossen
Ġwirt schaft
Ġro of
Ġgu y
ĠC EO
ĠF ans
ĠKommun ikation
ĠSl ot
Ġunterschied liche
Ġwor ry
ĠS earch
ĠHe ute
Ġcompon ents
ens wert
ĠD aher
Ġsch ne
Ġcomb ination
Ġleaders hip
Ġbe coming
Ġcon ference
ĠF ig
ren cy
Ġf uel
Ã ³
it ale
verstÃ¤nd lich
ce an
au ern
ĠPfl anzen
F rom
Ġum fass
ĠpersÃ¶n lich
Ġeinz ige
Ã Ń
ĠSie g
Ġverl assen
Ġcateg ory
be ll
Ġd oll
Ġclass ic
ĠS ale
ĠSer ie
8 9
tic le
Ġb rowser
l ist
Ġwe chsel
Ġac tions
ck ing
Ġal bum
ches ter
os h
reu ung
Ġab ges
ĠC lin
Ġd omin
ĠVer arbeitung
Ġagre ement
Ġw ann
Ġprof ile
B est
Ġer reich
duc ts
Ġ4 9
p et
ich ert
ĠMed ical
Ġrest ric
ĠH Ã¼
r ats
ĠProdu k
ĠBro wn
k an
forder ung
Ġshow ed
ĠZw ischen
Ġcle arly
ĠSchl ag
tic ip
ĠI ts
J a
Ġrelationship s
ĠK und
Ġmin imum
Ġgef Ã¤hr
ri age
z z
Ġpos itiv
Ġa id
ĠTr ip
ĠUnter such
Ġch anging
Ġdepos it
ĠT el
ĠZug ang
ĠM S
part ner
ar kt
ĠF A
la w
Ġgl Ã¼ck
um ps
Ġb oy
ĠReview s
ĠP en
is tics
ĠD orf
ich ern
Ġm ail
Ġpol icies
us ted
ĠFran c
we et
Ġval id
ĠMin i
lichkeit en
Â ²
Ġperson en
Ġsound s
ĠSer ies
Ã¤m t
Ġpers p
ĠMach ine
Ġsp richt
ĠT Ã¤tigkeit
ĠS E
Ġrun s
Wh y
ĠCont rol
ĠSk y
ĠFrank reich
Ġval u
ess el
Ġes c
Ġl aufen
ver trag
ĠK omm
ad d
Ġrecord s
ĠF estival
k le
Ñ ģ
6 2
nd en
Ġdein em
Ġin n
tel n
Ġer ror
Ġd agegen
ĠG olf
Ġhon est
Ġde als
ul ate
Ġpres ence
ĠEnerg y
ĠP fer
ĠK Ã¼nstler
Ġ4 2
Ġfun ctions
Ġteach ers
ĠWe chsel
ĠTra vel
w a
ĠVeranst altung
Ġcor porate
Ġak zep
ĠHig hl
c ious
Ġerw Ã¤
b ut
un ehmen
ĠThe ater
Ġop t
Ġpack age
riter ien
alt y
n g
w in
ĠT wo
C an
D ec
ler nen
Ġsie ben
Ġcol ors
Ġfurn iture
Ġg uests
Ġj ack
angeb ote
P R
Ġother wise
ĠW estern
ĠP od
Ġ ident
ĠBed Ã¼rf
Ġopin ion
sch uss
Ġapp lied
Ġexc ited
Ġle gen
Ġto ward
ill en
qu ar
is ierte
end ung
Ġpl astic
Ġshow ing
ĠD auer
Ġre ag
ie gen
rit ing
grif fen
Ġappro xim
Ġrecommend ed
ĠWett bewer
ĠS zen
we chs
B u
Ġgen annt
Ġappear s
fl Ã¼
Ġfocus ed
b us
igr ation
ĠR uhe
ĠBenutz er
P al
wert ung
Ġexpl ore
Ġdoc uments
S m
Ġdiscuss ion
ĠS achen
Ġbehav ior
y an
Ġzu ge
ĠMill iar
AT ION
ĠEr satz
Ġvor ge
ze hn
b orn
al z
fl Ã¤chen
L and
Ġmin ute
Ġh ilf
Ġpro ud
ĠK ore
V O
Ġd auer
P ar
Ġfor get
Ġtot ally
St and
Ġb ild
Ġn u
iz ieren
zieh ungs
ph ones
Ġwill ing
Ġj Ã¤hr
ĠP la
ĠU ser
Ġschnell er
ĠL td
Ġmax im
Ġres idents
ri x
an gel
Ã¤l fte
duc ing
ĠVeranst altungen
ed en
Ġopen ed
O K
Ġer leben
Ġbe auty
C o
Ġers tellt
ĠC ur
ĠFrÃ¼h stÃ¼ck
Ġenjoy ed
b our
8 7
or ie
Â §
Ġthe me
Ġconcern s
Ġkomm enden
Ġw inning
Ġch at
ĠD ass
ĠN atÃ¼rlich
Ġp air
Ġklein er
r ang
ĠC ost
Ġbath room
enn is
Ġfact or
Ġupd ated
fÃ¼ ll
Ġlead s
ĠSmart phone
isch em
p al
achel or
fÃ¤l le
Ġcon du
ig an
Ġb rief
ĠSt unde
ot ten
Ġre lie
ĠF unk
ĠEink auf
Ġstar ts
ĠRe is
ĠK och
Ġprevious ly
Ġfund ing
Ġf em
ĠF air
ĠT ats
Ġden ken
ĠO il
Ġd ah
ĠD VD
âĢ¦ .
kl us
ĠBeding ungen
ir n
o ÃŁ
Ġn atÃ¼r
Ġcal cul
ab l
ak tionen
ĠLe ip
Ġabsol ut
Ġverg essen
B N
Ġr an
Ġprov ider
a at
Ġc itiz
Ġadvert ising
s st
Ġper man
ĠL ike
ĠO R
ran ce
ĠSt ory
Ġvis ual
ĠDan iel
gem einen
Ġw ine
ĠWe ge
P M
mel den
r ant
Ġteach er
ab ase
Ġmeas ures
Ġge h
Ġinj ury
hol en
o hlen
Ġill ustr
ĠBild ung
ĠSo hn
Ġc ivil
Ġver me
te e
ĠChar akter
ĠLe g
ĠVer fahren
g rÃ¼
Ġ ice
B ay
Ġun its
Ġsc ale
Ġfl at
A kt
ĠThe ir
ĠOr ts
Ġwatch ing
Ġentsprech enden
up ts
ĠZ ustand
Ġle aving
Ġgener ation
Ġum fang
c ode
R ec
az in
laub t
ER S
g age
Ġdes pite
ĠAn schluss
ul s
ĠGeburt stag
ĠT ochter
ĠFÃ¤ h
S L
out ube
ĠB ot
p ra
x y
ĠFl ugh
G E
por ation
bet rieb
Ġt ief
ĠN Y
Ġber uf
Ġadv ance
ber icht
angeb ot
iz enz
or ney
â Ħ
l Ã¶sung
z in
Ã¶ ÃŁen
ib li
ĠTro tz
Ġan sch
Ġaccom pl
Ġh inge
ĠCar ol
ĠK ern
Ġgra de
Ġm ode
ĠNe ue
g or
Ġbe zeichnet
T ags
or ter
ĠReg istr
Ġentw eder
ĠF itness
itte e
Ġindustr ial
is tik
ĠSp ielautomaten
Ġunivers ity
ĠKont o
ĠF reis
p an
s ung
Ġcirc um
Ġk g
hand el
ĠAcc ount
ar zt
ti ere
r iere
ĠB Ã¤
ot ter
bar er
Ġa part
im a
ĠGott es
. '
tif y
Ġapp ar
Ġconsum ers
ĠKomb ination
ĠStutt gart
s ec
Ġn Ã¤her
ĠW a
Ġhe ll
ĠFran ce
Ġc up
Ġ6 5
ac ter
ger Ã¤t
Ġk amen
c an
Sp e
ĠzusÃ¤tz liche
Ġexc iting
ĠCh icago
Ġend ed
Ġman aged
F i
ĠSchweiz er
ĠKategor ie
Ġput ting
her r
ĠEd el
ĠM ir
ĠLebens mittel
Ġeing esch
ĠÃ¼ber prÃ¼
ĠProdu ktion
re ifen
ĠP ublik
wind igkeit
Ġj ungen
Ġspecific ally
Ġcomp rehens
R I
A ug
ĠK en
ĠFar b
Ġs now
mitt lung
ch ner
ĠL ab
Ġout door
ri or
Ġad ministration
Ġinteress ant
ĠBe vÃ¶lker
V iel
ĠJ ud
Ġt aste
ĠTeam s
Ġsh ipping
Ġ 000
Ġmus st
Ġentste hen
ti ck
Ġpro t
ĠP oker
Ġbe teil
ĠSch le
K ont
ĠH om
wh at
Ġsp ect
ĠPrÃ¼ f
kl asse
p oint
ien tif
Ġsec ret
ĠSP D
Ġleg is
ĠR ub
Ġinst ance
d ra
Ġarch itect
p ool
200 9
ĠE conom
Ã¼r en
a ub
Ġr ule
Ġmax imum
Ġvac c
Ġpan el
ĠAr ten
Ġm obil
Ġocc asion
ĠCh o
Ġh ers
ĠD ub
Ġinc or
or ation
Ġmach te
p fle
ĠC ro
Ġneigh bor
ĠHum an
ĠS um
Ġinform ieren
Ġm ine
for ce
Dies er
Ġs ets
Ġch air
ĠBest and
Ġausgest attet
em en
Ab out
ĠMed izin
ĠUms atz
ĠL ock
A pr
Ġa cht
ot al
ĠHand els
Ġpersonen bezogen
ĠT iere
g reg
Ġwalk ing
C ookie
r ier
Ġa gency
ĠL Ã¼
p asst
ro du
Ġ id
ĠNetz werk
Ġmost ly
Ġdeta iled
Ġcon temp
Ġgen e
Ġs ons
sen s
Ġacc ounts
Ġger ing
b aut
o om
ĠCont in
ĠW ik
ĠMark e
Ġj Ã¼n
ĠNach bar
ĠInter ess
ĠH unde
haf te
Ġra ised
Ġ ille
b ad
ĠA S
Ġloc ations
Ġbatter y
Ġbet roffen
ers ey
Ġpl ug
Ġrad io
ĠAuf ent
ĠN ied
ĠA ward
Ġre icht
au ert
ĠWe iÃŁ
Ġmed ium
kt op
Ġaut h
Ġst ores
Ġent schieden
ĠÃľber blick
Ġsuit able
ĠE dition
Ġtrans form
ĠAut hor
m d
Ġoptim al
Ġmittel s
ĠY es
Ġsc ene
H S
k al
Ġvol ume
ver gleich
Ġch amp
Ġse qu
Ġc row
ĠTe ile
ver fahren
ĠArch ite
ret ch
ĠW Ã¼n
ĠHeim at
c ohol
Ġin zwischen
ĠHa ve
T ag
wer den
Ġbr ings
ic ing
Ġge fallen
Ġ {
ĠK or
Ġanim als
Ġs am
Ġed ge
ĠZ it
f alt
ĠgrÃ¶ÃŁ te
oll en
a ust
ord s
ĠZeich en
n ummer
ĠFall s
ĠBl u
iz er
y ers
il it
ĠL Ã¤nder
ut y
Ġber Ã¼cks
c en
Ġcho ices
Ġsp aren
ĠAl ters
ĠSc ott
ĠAcc ording
ĠFern se
reat ive
ĠM ur
ell ing
Ġask ing
Ġr ub
ow e
Ġimport ance
ĠE igent
Ġ4 4
ĠWer bung
ĠBe w
Ġconsider ing
och e
ĠQual itÃ¤ts
ĠMann schaft
ĠRÃ¼ck en
ĠWar um
Ġbe ob
bl att
Ġenvironment al
ĠSt ream
J etzt
Ġz ust
ĠZug riff
ĠUp date
sch irm
aus piel
Ġdie d
Ġbege ister
Ġnie mand
Ġst ated
eich ert
ĠhÃ¶ ren
if fer
ĠB aden
Ġattemp t
Ġbeste hen
Go ogle
rech ts
p ers
Ġintern al
Ġfer tig
Ġdec re
ĠG anz
Ġkind s
ĠFeuer wehr
Ġphot ograph
Ġfra me
st ens
Ġm anner
ĠSon ne
ĠGew icht
Ġclim ate
c ol
uck s
Ġre ference
Ġperform ed
ĠGe brauch
Ġse a
ĠT ax
ĠH ilf
G H
ag og
Ġlang sam
Ġseek ing
f Ã¤nger
Ġe ating
fort unately
in ts
Ġra in
ĠAn lage
Ġme ant
ĠPre mium
M on
ew ork
Ġarbeit et
wei ÃŁ
ĠM acht
ick e
Ġgest alten
Ġunterschied lich
ĠDisk ussion
ĠWel che
ĠL Ã¶sungen
Ġpre is
ĠD I
li ers
ĠÃ¼ber all
ĠS qu
Ġasp ects
ĠA T
Ġc oin
8 6
lÃ¤ uf
S ep
cle ar
d auer
Ġbesonder en
Ġc ro
ĠW alk
ip edia
Ġw eder
ĠPro jekte
ĠB ru
ĠBereich en
ad el
ze ige
qu alitÃ¤t
Un ser
et ball
or gt
ocol ate
Ġst arten
ĠPhil ipp
ack s
mit glie
ĠEm ail
ĠT ake
Ġa chten
d am
ĠZahl ungs
ro ller
ĠStud ie
g esellschaft
ĠStand ort
B r
ĠBed arf
ester day
ĠGesch enk
ĠMilliar den
Ġs auber
Ġkosten lose
ĠS emin
rie be
âĦ ¢
ĠH art
y r
ĠK ol
Ġv ic
Ġnot es
Ġprom ote
Ġrap id
ĠInd ustr
andem ic
ĠAk tien
Ġfac ility
ĠB rief
Ġcre am
tier ten
Ver Ã¶ffentlicht
pro b
Ġbr ight
E l
ĠM eine
ĠFol gen
r ufen
ĠDem oc
e f
Ġdes ire
hol t
u led
ĠE he
Daten schutz
ur ies
Ġge lesen
O V
Ġfeed back
En t
H i
Ġs ister
Ġsug ar
Ġdepend ing
Ġsh ip
Ã¼ck en
he ben
int age
Ġr ide
ĠBe griff
Ġste ig
Ġprovid ers
frast ructure
ĠGrund lage
oc al
ĠHÃ¤nd en
Ġr ise
ĠSing le
ien te
d rÃ¼ck
ĠProdu kten
How ever
Ġle aves
idel ines
Ġrel iable
Ġcas inos
Ġs um
Ġcl oud
M ein
Ġd inner
Ġsim pl
P N
ĠFran z
ĠC ann
glich e
Ġver n
ĠGe fahr
Ġdou bt
tim me
th eit
Ġj ump
Ġwund ersch
g as
Ġmen u
Ġinfluen ce
Ġab geschlossen
P U
m es
ĠStud io
ĠZ uf
Sh are
Ġl angen
Ġart ist
Ġinternational en
Ġges etzt
Ġun less
l Ã¤nd
M ark
Th ank
Ġr ing
Ġdesign s
ĠF OR
ĠA ction
ĠBe f
ĠV ort
der t
Ġr ies
Ġallow ing
Ġel imin
ĠSe x
ĠEmp fehl
id den
Ġafford able
Ġber ichtet
ĠOrgan isation
Ġfil ter
ĠUm gang
Ġpur pos
ĠO s
Ġs org
ĠKir chen
ĠH aft
os ite
p to
Ġto ugh
ul in
k in
Ġ6 00
ĠI ran
ĠC ross
d i
ĠDist rict
sel ves
ES S
os me
Ġk ennt
fre ie
o z
ed ing
Ġcor ner
ĠW ay
ir ms
ut ation
Ġinst alled
L S
L ast
ĠD own
ĠG ene
ĠEin ige
Ġl auf
ĠLe vel
A V
Ġfol gen
Ġbes uchen
Ġwissen schaft
ĠJ ung
ĠFlÃ¼ cht
J ust
all ery
reg ierung
Beit rag
pr ene
b aum
. âĢľ
al ian
p assen
Ġteil en
ĠTer r
B M
t own
ĠK u
ger ufen
p at
Ġinstall ation
Ġsicher lich
ĠKaff ee
ĠW ol
Ġfav our
h us
Ġpark ing
m ess
Ġm uÃŁ
ĠS V
Ġglaub e
P lease
ĠComm ittee
Ġland sc
Ġvehic les
ĠSte el
ientif ic
R ed
Ġaus z
ĠIn t
ator en
F T
Ġj u
f igur
ies o
Ġmanufact uring
Ã¼r t
ĠT al
Ġbet rÃ¤gt
m aschine
p flege
ĠZ entrum
Ġpro p
if ft
voll en
O p
Ġan c
Ġfil led
Ġc op
j o
Ġtr end
ym n
ĠðŁ ĺ
miss ions
Ġaud io
ĠN ik
Ġbew usst
ad ies
Pro f
ĠS Ã¤
w ater
ĠUn fall
l ings
ĠDar Ã¼ber
Ġre ich
inf o
ĠerhÃ¤lt lich
or ary
ĠSp rach
Ġs uff
ĠH of
m Ã¶glichkeiten
ĠDok ument
Ġunter s
ĠR ang
Ġconsum er
Ġaus fÃ¼hr
Ġver pflich
un fts
ĠRel ig
Ġrem ote
ag ne
ic ians
Ġcr ushing
ĠO hne
v ier
ĠE N
S ub
ĠM ah
ro t
Ġc ities
Ġpr Ã¼
Ġse at
ĠðŁ Ļ
ĠPh ot
Ġfol gt
ĠFÃ¼hr ung
Ġb ird
Ġacc ident
h es
Ġwichtig er
rÃ¤ ume
bl ings
O ff
ĠWar en
ĠA uge
Ġvol unte
j e
ĠR oss
ĠT own
Ġbrand s
A k
D I
ie de
Ġv ote
Ġpub lish
Ã¼ ch
ik ations
ov id
m ach
ĠC ongress
N ame
k Ã¼nd
Ġinter ests
itu tion
um er
gesch rieben
% .
ĠN ummer
200 8
hol z
pr Ã¤s
ver l
7 6
W ork
ĠApp s
Ġsett ings
Ġwel chen
Ġzahl reichen
Ġexpla in
op en
Ġp oll
Ġpre mium
W ell
ĠCent re
ĠSte p
Ġp ump
ĠBe wegung
ĠComm un
Ġbeg innen
b ing
ĠII I
sp rache
ĠLe ad
Ġgr inding
ĠLiefer ung
Ġslight ly
Ġorgan is
leit en
Ġbus y
ĠS at
ĠR am
new s
pre chen
Ġst atis
eh old
ĠPap ier
Ġ9 9
M en
Ġwich tigen
ĠOp tion
ĠL as
b al
Ġindivid uell
ĠL ern
ĠL abor
fahr er
Ġrespons ibility
d urch
l ar
ĠVir gin
ĠM ul
G u
Ġn ut
ĠZ oll
end ar
Ġsp Ã¤t
Ġwrit er
ti le
Ġauf genommen
Ġsh ares
Ġn erv
Ġlov ely
Ġar range
ĠL ine
Ã¤ ne
Ġgew onnen
ĠWh o
Ġrec ipe
ĠSam sung
Ġkos tet
r aten
ad ian
ĠSoc iety
ĠEin zahlung
Ġsch auen
oun ter
Ġupd ates
Ġsign al
ra in
ex p
ĠF lo
Ġviel fÃ¤l
ĠSt Ã¤r
Ġum s
ĠForsch ung
ĠMod elle
ĠH Ã¶r
ĠEv ents
ick er
Ġqu iet
hin dern
Ġmanufact urer
Ġlie ben
Ġentsprech ende
ĠC at
W est
Ġbere ch
r upt
od ies
Ġfield s
Ġzahl en
ĠO k
w en
Ġentde cken
ĠB atter
Ġfix ed
W E
b d
Ġexam ples
W S
Ġbo ost
Ġmass ive
l ers
ĠD ollar
Ġe ure
p fl
re land
ĠS ales
Ġdurch s
Ġv ital
Ġre venue
ĠSol ar
Ġerkl Ã¤ren
Ġgen annten
ab is
ive au
m aterial
stell t
Ġ6 4
Ġr id
ĠDe b
ĠPr ime
Ġseem ed
Ġge he
ĠUms etzung
Ġhe aring
O G
ĠEx tra
Ġmed izin
hab er
ĠBe zir
Ġprote in
ĠV e
Ġh yp
stÃ¤nd en
Ġnov el
Ġan sehen
andem ie
Ð¾ Ð
ĠA th
ĠL y
Ġher um
Ġreach ed
ĠVer eins
ĠLin ie
Ġfe els
ĠB lo
Ġverk aufen
p ret
Ġno tic
ik ing
Ġs amm
Ġsympt oms
an aly
Ġj en
ĠVer gangen
Ġther apy
Ġro ut
erm ann
wh ich
ak ed
m ond
Ġpurpos es
k ap
Ġsc r
Ġocc up
Ġingred ients
Ġeff iciency
r al
Ġgem Ã¤ÃŁ
c les
Ġapp oint
Ġlay er
r ise
Ġspec ies
9 6
ien s
Ġtechn ische
Ġk Ã¼nf
b ring
ĠJ ava
Ã¶r se
B I
hen tic
ĠAnaly se
Ã¤d t
ak ten
Ã¼ se
r est
Ġapproxim ately
ĠD uring
ti ment
Ġsub mit
ĠNe xt
k tik
ate ll
if el
Ġor e
ĠOb ama
telligen ce
Ġtechn ologies
Ġconf idence
ud den
anc er
ĠNews letter
Ġeinfach e
Ġin put
Ġpay ing
Ġclin ical
Ġan zu
amer as
Ġer heb
ĠA ch
ĠRe chte
Ġf aster
Ġges pielt
Ġdar unter
ax y
ĠB ow
ro ad
Ġintro duced
z ieren
ark s
Ġemo tional
d ers
Ġra ise
el ing
st ation
ĠB ab
Ġg ambling
ĠFr ont
Ġc e
Ġofficial s
ĠRich ard
son sten
ĠH P
Ġeff ectively
ĠGutsch ein
ĠW ass
ok us
Ġsch reibt
ĠPol y
Ar t
Ġemer gency
Ġfamil iar
ĠS U
Ġirgend wie
Ġmen sch
ĠS us
ĠH ein
Ġcircum st
Ġfra gen
ant ie
u ing
forder t
ĠHist ory
rib e
Ġe gg
i ability
an walt
ot te
o ben
ĠViel leicht
ĠLou is
c raft
ĠVol k
Ġmiss ing
Ġevent ually
ĠAltern ative
ĠVors itz
ĠK Ã¤ufer
wh ile
gen cies
Ġhold ing
amp e
utr ition
H R
Ġany where
ĠEin stellungen
ĠF isch
ĠPrÃ¼ fung
Ġpartners hip
ĠW achst
olly wood
Ã¼ hm
Ġdr ivers
ĠBerlin er
Ġexpert ise
Ġd iam
ĠPart ners
ian a
omb in
en ke
ar p
ĠP ub
Ġag ent
ĠProf essor
rÃ¤ gen
t op
Ġprote cted
tz eit
ĠKrit ik
hÃ¶r den
RE E
In tern
Ġth read
ĠA st
ĠÃ¼ber zeugt
ĠN on
ĠA rab
ic ian
Ġlie ÃŁ
ĠE arth
ĠKap ital
us te
Ġre duced
a ug
s eite
ĠSchul en
Ġheu tigen
imm ing
ĠRegel n
AN D
Ã¤r m
Ġread ers
Ġersch eint
ar tig
Ġsign s
y ou
Ġtre es
im en
Ġb attle
k ohol
h aben
ie fe
Ġsow eit
Ġsur vey
Ġmit einander
reat iv
igh ten
Ġun mittel
ĠFle isch
Ġproced ure
bre chen
Ġtem por
ĠUnter schied
Ġa th
arbeit er
Ġimpro ved
ĠV egas
Ġremov ed
k ret
ĠOn ly
Ã¤mp fen
ĠC R
at i
at us
w orth
Ġhous ing
ĠEin s
on ie
cep tion
an i
Ġprep are
Ġbesch rieben
ĠOp tim
fer nen
Ġmin or
ĠE re
omes tic
Ġart ists
4 00
st one
M us
Ġra nd
M ich
Ġcent re
Ġres ol
Ġaw esome
Ġalle ine
ĠR ing
Ġsubst an
ĠB ade
ĠH aw
ĠÃ¤hn lich
Ġch ain
ĠGes icht
Ġdist rict
f unk
Th anks
igh ted
ĠGew alt
ĠS EO
ĠJ on
Ġz entr
Ġt rÃ¤gt
P ol
Ġcomp lic
Ġm g
Ġl ok
ĠBe ge
Ġin iti
N r
Ġcon text
Ġv irus
ĠL ow
Ġwar n
ĠE isen
ul en
ĠE M
Ġcaus es
ĠCh ancen
Y es
ĠD afÃ¼r
p ek
alle l
er r
g ant
Ġemploy ee
Ġcommit ted
Ġ199 9
Ġelekt ron
ĠRoy al
Ã¶tz lich
Ġk auf
Ġâ ľ
Ġvirt ual
ir ts
Ġm Ã¶
Ġcon fl
ĠMaterial ien
C T
Ġzu g
Ġsit ting
emb ly
ĠG irl
Ġur sprÃ¼n
sch te
ĠHel p
V iew
p g
ĠBe teil
te ch
Ġd ump
Ġan hand
ĠEng lisch
ichte te
ĠAfric an
R L
Ġf oll
ĠUkra ine
k m
Ġcon ver
ĠEr inner
pro f
âĢľ .
ak a
ĠCr usher
e per
sh ops
n etz
Ġl ibrary
il a
ist ungs
Ġf ruit
Ġsqu are
ĠEx pl
ti ll
Ġex tend
G ro
ĠIn str
ĠvollstÃ¤nd ig
n ight
Ġer laubt
arm a
Ġvor stellen
ĠKon zept
ĠChe f
Ġ Î
Ġmus sten
ĠP ool
ĠM ike
ĠL ind
Ġw Ã¤ren
f ilm
Ġy outh
Ġges tern
fris tig
Ġver urs
ĠgroÃŁ es
Ġcomb ined
z ension
schlÃ¤ ge
ult y
s ein
ĠSt atis
h te
ĠK ann
Ġge kauft
lin ed
Ġeff ek
Ġfl ight
Ar ch
ĠAngel es
ack en
Fe b
Ġv ary
Ġreal ize
F r
Ġperf ekte
Ġs ample
ĠL aur
ĠFe hl
Ġcomprehens ive
Ġsignificant ly
ĠD Ã¼sseld
olog ische
Ġdiscover ed
a a
ĠC ast
ist isch
oin ted
Ġrec overy
als o
Ġsign ed
ac c
ob s
ĠAs ia
Sh op
wÃ¤r ts
ĠB ier
ink el
br id
ĠAr ts
e v
re al
k omp
ĠC oll
Ġbeg rÃ¼
O U
ĠS out
7 4
ĠB ang
ĠZeit ung
Ġspe ziell
an bieter
Ġrest aurants
Ġex t
Ġsoll test
w Ã¤hlen
ĠTr end
ĠGren zen
ĠM aschinen
go ti
Ġfe hl
re es
Ġerw eit
ĠEin fluss
ig ungen
ĠEr de
and ers
Ġbas k
el a
ib ilities
Ġmov ies
Ġb ound
r in
Ġ199 0
Ġst Ã¤ndig
ch o
in ations
et enz
amm t
zie llen
ĠF ord
Ġnoch mal
Ġout put
Ã¤nd en
Ġgood s
ĠBesch Ã¤f
Ġtem pl
ĠV ictor
ill y
I st
E very
O ct
Ġdra uf
7 1
ĠPer formance
Dies es
Ġgreat est
D ate
ger Ã¤te
Ġprac tical
Ġper mit
ies e
ĠGe heim
olog ien
ti pp
ric s
ĠApp lic
ĠFin ancial
ord ers
Ġelect ronic
ier end
Ġcon sequ
ĠIm mer
ĠAcadem y
Ġa st
ĠP A
ĠH Ã¤lfte
Ã¼m mer
H A
ĠStud ium
Ġlaunch ed
ĠVer letz
ren nen
ĠMo dern
Ġb ran
Ġg aming
Ġco al
Ġcou p
Ġthe ory
M o
stru ction
un a
ĠS ite
ĠCle an
Ġtr ifft
ĠArbeit geber
ĠF ein
Ġres ource
Ġge zeigt
S ystem
Ġele ction
Ġregion al
rypt ow
Ġ8 00
Ġsupp orted
Ġpar ent
ĠG ran
Ġp andemic
ĠWer be
Ġflex ible
at ik
Ġverl ieren
Ġappro ved
ĠðŁĻ Ĥ
ĠFahr t
Ġvoll er
ĠprÃ¤sen tiert
Ġr um
Ġt esten
ĠdÃ¼r fte
Ġdeliver ed
Ġtop ics
ĠÃ¤ uÃŁer
Ġ4 3
ĠKar l
ĠRest aurants
ĠF ast
ĠgrÃ¶ÃŁ er
Ġin tended
ĠVergangen heit
ĠE t
H L
iz za
f assen
upp er
Ġc ultural
Ġserv ing
ĠEigen schaften
ĠKlim a
re ens
ĠK amera
8 4
Ġwh om
h ers
wissen schaft
ĠÃ¼brigen s
Ġpl ays
Ġdog s
Ġeing er
Ġgrund sÃ¤tzlich
ĠÃ¼b ersch
st ream
ĠP a
ub s
Ġange geben
ĠP enn
Ġour selves
ich tigen
ĠCon c
ĠMo tiv
F orm
R el
ĠSte fan
ste chn
ĠMed ik
ĠSec ret
et ing
ĠAus land
Ġjoin ed
ĠK art
Ġbro ther
Ġb row
ĠC la
Ã ¨
P e
Ġm ut
ĠDe ck
Ġcon duc
Ġsong s
w enden
Ġr uss
Ġsch war
ar ry
Ġad ults
ĠEin fach
Ġmonth ly
Ġtrans l
R W
S ee
ĠD C
ok ing
gem eine
Ġp ure
ĠpersÃ¶n liche
rech te
Ġver treten
ĠF ass
Ġans wers
ist a
Rep ly
rank ungen
z unehmen
ĠP oten
Ġ ..
Ġbreak fast
re ck
Ġdistrib ution
Ġm ul
Ġmin im
ter t
ĠN ight
Ġdoll ars
ĠF ac
Ġbis lang
Ġfor g
igh ter
Ġencour age
ĠO S
ach tet
Ġex ec
ĠKosten los
Ġcon cl
es tet
ĠSchl Ã¼ssel
ĠKe ep
ĠK abel
ber atung
ĠUr teil
Ġsozial en
Ġl ohnt
ĠWh ether
ĠKl assen
Ġapprec iate
bild ungs
F irst
ra chen
Ġan x
Ġme al
ang t
ĠAktiv itÃ¤ten
Ġchar ges
ĠRo om
Ġerz Ã¤hlt
Ġch annel
h et
Ġdeterm ined
te x
ĠLeip zig
arket ing
ro y
Ġappear ance
O h
ĠInter essen
ĠCont ent
Ġgleich e
ĠKolle gen
Ġm ent
Ġn ine
Ġy es
ĠR oh
Ġsch m
hn ung
isten z
ichtig ung
ol o
Ġidentif ied
7 2
lo c
Ġfran zÃ¶s
ĠAndre as
Ġge halten
Ġan imal
ĠDis ney
Ġakt ual
on ic
Ġex cess
Ġcar bon
Ġver st
ĠgewÃ¤hr le
Ġfail ure
Ġs ad
Ġfal sch
Ġcompet itive
ĠiP ad
Ġausreich end
spr ung
D ownload
Ġre fr
Ġverme iden
+ +
ian o
Ġbe at
ĠT anz
ĠR unde
ap ier
walt ungs
Ġaus ges
ump tion
ung er
as i
ĠWÃ¤r me
Ġe dition
ĠJohn son
le gung
ĠI reland
onn a
L og
Ġvalu able
Ġreturn ed
ĠSch on
ĠOrgan is
Ġk ick
I mp
ĠSt ress
Ġk ombin
ĠPlan ung
Ġmoder nen
Ġc abin
T R
Ġze ich
om ing
rit z
ĠT emp
uch er
b ay
ĠM ix
ĠÃ¼ber nehmen
Ġconven ient
Ġsecond s
ĠVerb esser
Ġl ights
Ġinvest ors
all er
ap es
ock et
Ġpropos ed
Te am
7 3
Ġnied r
reis en
ĠGe ist
polit ik
ĠLie blings
ĠRuss land
ron om
ĠHe ll
Ġexce pt
____ ____
ĠS ab
Ġis land
Ġm ount
ĠBevÃ¶lker ung
ĠB oth
Ġver hindern
Ġcol our
Ġher gestellt
Ġeduc ational
Ġpl ate
Ġd ritten
9 4
st ock
Ġern st
ĠD enk
Ġpass ende
m g
W ill
Ġzie ht
Ġange zeigt
Ġerst mals
Ġgel ungen
Ġconvers ation
st ers
ĠTe ch
ĠKÃ¼ hl
g han
L ie
Ġzu verlÃ¤ss
Ġen orm
ĠVertrag s
ĠPl attform
mosph Ã¤re
Ġfor ces
Ġe hr
kt uren
- /
Ġis ol
Ġcris is
Ġass ets
ste iger
Ġ4 6
pl Ã¤tze
den ken
Ġpriv acy
ĠB alk
book s
Ġautomat ically
ers e
ĠwÃ¼n schen
ĠSti ll
ost on
Ġcon v
Ã¤n glich
ĠA B
ĠMin ute
ĠV ide
ĠGener ation
ĠC ond
ichtig t
rÃ¼ ckt
ĠAlex ander
Ġn ar
sp rach
ĠErn Ã¤hrung
M in
Ġs Ã¤mt
ĠT a
Ġplatform s
Ã¤ ck
Ġwir st
sp h
Ġno ted
ĠGrÃ¼ n
hand lungen
ĠBe weg
tern oon
ĠJ oe
Ġan bieten
Ġbeg ann
Ġnie mals
ĠGrÃ¼nd en
Ġm outh
ar tet
l ink
ĠverfÃ¼ gen
au ce
Ġzun ehm
en g
Ġb ike
Ġverantwort lich
t Ã¤
ĠBer icht
N icht
Ġd ining
!! !!
H el
ĠInform ations
olog ischen
u ben
Ġbe zahlen
ak et
ĠLiter atur
S ervice
spiel er
Ġeinzel ne
Ġan schlieÃŁend
Ne xt
ĠKil ometer
Ġwes entlich
Ġbig ger
ĠSt ation
Bl og
Ġhochwer tige
Ġhinge gen
g Ã¤nge
Ġk redit
An geb
Ġcar ried
ĠC over
Ġwhe el
ber n
timm ungen
ran e
Ġconc rete
men te
Ġle isten
Ġguarante e
Ġhe im
ĠBes onders
ĠViel zahl
Ġres erv
Ġzu kÃ¼nf
Ã¤l le
ĠAm b
Ġ ~
le hr
ĠCh ief
Ġtyp ical
Ġsupport ing
Ġg lob
P at
h end
Ġp un
Ġcut ting
inter est
ĠHin weis
ĠF an
ĠL eder
Ġbe halten
In st
Ġcall ing
ĠUp d
Ġde fense
ign et
Ġeurop Ã¤ischen
ĠF oot
le v
ĠD adurch
ab ol
prÃ¼ fung
ens ions
h Ã¤user
F ree
r im
it ute
ru he
Ġknow ing
E E
ĠAd dition
ru cken
Ġdef end
Ġsur gery
Ġfrequ ently
Ġpor tion
8 3
Ġs tellte
ĠN OT
is st
ungs s
ĠEngine ering
erstell er
ĠF L
Ġs oul
Ġbring ing
h Ã¼
hal le
Ġfe hlt
loy ment
Ġconcern ed
oss ible
ĠS eine
ock t
Ġan meldung
Ġgesp eichert
g ut
Ġvic tim
Ã¶rder t
Ġbess ere
ativ ely
haf ten
ĠS em
ĠJ ones
des ign
ĠWord Press
L ink
Ġ9 5
Ġgro ss
r ors
ĠTher apie
Ġd omain
U r
l ik
Ã¶ pf
ĠB aus
qu ality
Ġhous ehold
ĠAll gemein
ĠB urg
ĠLe ider
Ġrem ind
ĠZ iele
Ġpay ments
Ġorgan ic
Ġz Ã¤hlt
mp h
Ġfa iled
ĠAud io
Ġi OS
Ġmin i
ĠLand kreis
ĠZ wei
9 3
mer ce
Ġweiter er
Ġfood s
ĠRuss ian
Ġsch Ã¼tzen
Ġre ar
ĠS S
Ġsinn voll
Ġl iber
a ue
vis or
Ġgem Ã¼t
Ġso le
P ort
Ġhundred s
Ġbet ting
Ġm att
Ġcommit ment
Ġneighbor hood
à ¸
Ġdis ku
heim er
F ind
V ER
w ich
ã ģ
ec tives
ud i
Ġkur ze
ĠCont act
alys is
D ar
Ġs ides
acht ung
ĠSch uhe
Ġex ternal
Ġparticip ants
rel ated
l Ã¤nder
ĠSec ond
ĠDr es
ub ehÃ¶r
ed e
rÃ¤n kt
Ġg lo
Ġ4 1
ce ll
Ġrep lace
Ġdo ors
isch ung
pl atte
AR T
gor ith
Ġconst antly
Ġexp os
rag on
ĠJahrh undert
ĠVerantwort ung
ain er
o ted
ĠP o
M ost
ĠR icht
P L
Ġex ecutive
ĠH ospital
waren ess
Ġrand om
b ilder
Ġa partment
sh ips
Che ck
St art
A re
Ġver kauft
Ġvor be
ĠN ic
ĠS ein
A A
Ġf ach
Ġtroub le
Ġs icht
B L
ĠSch aden
ĠMar ia
ĠFlugh afen
ĠCon ference
ĠL eiter
Ġbe in
Ġk ommun
Ġob lig
ĠDank e
Ġ icon
ic ed
Ġr is
Ġk ing
ĠFil me
Ġpersp ective
ber ry
Ġwe ak
ĠPers Ã¶n
Acc ording
Ġaccur ate
Ġcru cial
Ġb ilden
ek ten
Ġlic ense
F F
ĠAuf bau
ĠEng agement
ĠBe ziehung
Ġhab t
Ġbro ken
ĠJ ac
Ġsp ons
ĠAut os
ĠSh are
Ġkon zentr
Ġab sch
ige m
Ġregistr ation
inn ers
at re
spiel en
ĠK eine
Ġc art
S tra
tem berg
ĠInd ivid
Ġp apers
ĠL ibrary
Ġent standen
Ġk illed
Ġentsp richt
ĠF lex
AL L
ĠT ri
ĠG olden
id ance
aj a
ĠP ac
ĠY oung
ĠerhÃ¶ ht
Ġgl ad
200 7
h op
Ġdes cription
ĠAss ist
8 00
ok es
ĠSy mpt
Ġverd ienen
il de
Ġf ly
ĠH as
ĠEre ign
T L
Ġj oint
or ough
Ġtr ig
Ġcr ush
H O
Ġd ivid
ĠPro cess
ab eth
Ġl ived
ĠVer lag
ĠJ eder
ĠfÃ¼ hlen
Ġch osen
Ġmain ly
ans ion
ag d
ipp en
Ã¶ m
9 2
Ġaff ected
Ġac id
Ġsur f
Ġ199 8
ĠUnter kunft
te in
ĠEle ment
ĠF rieden
ne e
rech er
ĠD og
ĠF al
ĠHann over
Ġc overs
li ance
Ġcolle ct
Ġge fÃ¤llt
ĠW ichtig
Ġle ichter
le vel
Ġpol y
ĠW i
ĠE xt
Ġle gend
Ġinter ior
Ġproced ures
ĠMar c
le c
ek tion
w ann
m y
Ġregister ed
d essen
Ġt asks
ph p
s l
G ra
Ġweiter es
Ġm ur
de u
ĠP resse
ĠF arm
ĠGe legenheit
Ġsol ar
F oto
Ã¼r n
Ġworld wide
ĠK ant
Ġgepl ant
f ect
Ġad ult
le ger
Ġextens ive
ĠEind ruck
S port
jen igen
ver waltung
Ġarr ived
ĠSch auspiel
Ġmel den
b rÃ¼
is tern
Ġord ers
ah nen
Ġcitiz ens
m aschinen
O ver
D am
ĠM ountain
Ġge fÃ¼hrt
Ġs tim
K W
Ã¤hr t
Ġperfect ly
Ġassess ment
Ġin frastructure
Ġaus geschlossen
Ġappe ared
en ne
W o
un ting
ĠH ins
Ġch ief
Ġcomm and
ĠWh ere
Ġdat abase
ĠLear n
as ant
Ġenh ance
aw ay
ĠThere fore
Ġged acht
in ct
ĠB R
ĠFahr er
ĠG M
Ġe c
Ġgen Ã¼
Ġj ur
ĠC ru
lie fer
War um
fl ow
Ġth ick
Ġpurch ased
Ġrelativ ely
ĠMan ufact
ĠF ant
Ã¶ ss
un es
en kt
atur ing
ĠPro ducts
Ġentste ht
Des ign
ĠC ertif
Ġh Ã¤ngt
ĠB ul
ĠN a
Ġpass enden
ien z
clud ing
ĠG B
Ġd ient
Ġl unch
k ampf
ĠLe e
Ã¤hl te
8 1
ĠPh oto
Ġte a
ĠMik ro
oun ted
ph y
Ġeing el
Ġfest ge
ĠB ob
Ã¤ ische
v y
vers ion
ĠAuf t
Ġges ucht
Ġstand ing
ĠD aily
Ġro ute
ĠTechn ologie
am i
ĠSil ber
Ġcy cle
ĠI M
ĠD or
grÃ¼nd et
Wel che
ĠAmeric ans
Pr iv
Ġph ase
bau en
umm ary
Ġbene fic
h ar
ict ory
ĠerfÃ¼ llt
ĠK ids
Ġdec ades
Ġt ail
9 1
la fen
Ġremain ing
ĠSp itzen
ĠMus ter
Ġmar ried
spl atz
Ġbes itzt
g ren
Ġg un
ĠSp irit
ĠkÃ¶n ne
Ġdr ugs
ĠJapan ese
st al
ĠGer ade
ĠLehr er
T ele
ĠD iam
Ġto m
Ġmin imal
we ight
ĠForsch ungs
oth ing
ĠMil ch
ĠP RO
ĠImp f
w orten
ĠAd resse
Ġh ire
gew icht
ĠVertre ter
Ġbuild ings
ol en
... ]
ĠC ase
Ġsh ock
Ġhoff e
ĠN iger
Ġqu e
ĠJahrh under
ĠF ollow
Ġdel icious
Ã¼ ten
K om
ĠAl bum
ĠGr ill
ĠAn ton
b ett
C or
ĠNach richt
ĠR od
fahr ung
ĠTeil nahme
Ġb an
ĠW M
ĠRegion al
s sen
Ġwe ap
ĠB Ã¼r
Ġregular ly
ĠÃľbers icht
Ġpre gn
ĠStud ent
m esser
le ucht
ymn as
r ation
F acebook
ĠC C
Ġinform iert
Ġhealth care
Star tseite
ĠB E
z um
lie bt
ĠDeutschland s
al and
Ġte x
ĠF avor
ĠPr im
iz ierung
Ġmess ages
k rieg
Ġs in
ĠL uc
ĠMÃ¶ bel
ĠFe ed
ĠSt ahl
am ed
utr al
ux e
ĠSch loss
Ġs udden
ar tigen
irt y
ĠUn s
sp art
ĠKont rolle
Ġsupp osed
ĠD ro
t l
Ġt ickets
Ġbe ar
ou ver
ĠAustral ian
Ġm Ã¼
ĠD ur
Ġschn elle
I hr
ĠSch nell
P D
Ġcircumst ances
s ent
Ġshe et
ĠL ud
ar l
Ġklein es
Ġfem ale
Ġbegeister t
ĠMerk ur
n itten
Ġo h
ĠMod el
Ġc ooking
Ġcre ation
Ġsogen annte
ĠK Ã¶r
Ġinde x
ĠBes tellung
ĠM io
ĠF R
Ġr ating
Ġdisc ip
ĠGlÃ¼ck s
Ġ Ã¶ffentlich
Ġwir ken
Ġed itor
Ġgu est
ĠCons ult
Ġaf ternoon
Ġbeein fl
ue ller
Ã¼s sen
ĠE sp
ĠN ahr
Ġkl icken
Ġdar aus
ĠCD U
hÃ¶r de
ĠBe fore
tell er
Ġw ohn
Ġal cohol
Ġwor se
Ġposition s
Ġverb ind
Ġfol ks
weis ung
Ne ben
ĠRuss ia
ĠPl ant
A ss
Ġcons ent
g s
Ġab zu
ĠRou lette
ut ch
Ġwel chem
Ġkon kre
Ġincred ible
Ġv it
ĠKunst stoff
Ġstark e
ĠT ools
T O
er be
Ġsupp lies
ĠBild ungs
um es
Ġel ig
ĠH at
Ã¤d agog
ĠN ick
ĠJ er
ĠSe hr
ĠbeschÃ¤f tigt
i ors
Ġ4 7
Ġpos it
Ġre ward
ĠEx press
ĠSt one
Ġrece iving
Ġimpro vement
af Ã©
ĠDr ive
V iele
ĠM ind
ĠOut door
ĠWe il
Ġa merikan
H E
ad ow
ĠB le
Ġfour th
ĠÃ¶ff nen
Ġexcl usive
Ġerst mal
he iz
sh ire
Ġsing les
Ġl Ã¶
ĠN och
Ġinstru ctions
ĠI V
on line
Ġemploy ment
pp y
ĠWer te
f ers
h Ã¤nger
S k
Ġ5 2
ĠmÃ¶glich erweise
Ġphil osoph
Ġspe aking
wor tet
word s
Ġge legen
bed arf
ĠRe ply
Ġout standing
ĠF un
ul ous
Ġmo tion
B o
Ġb read
Ġwas h
ac ing
ĠÃ¼ber tragen
meric an
ĠAn teil
S im
unn els
Ġmat ters
j i
qu is
ograf ie
Ġcomm ission
v ements
Ġw ard
Ġz Ã¤hlen
ĠLie b
. ).
ver tre
In f
kl ag
tik eln
Ġl iquid
Ġemp has
V ideo
men s
ĠQu ad
Ġver stÃ¤r
ap ed
ĠR out
Ġnah m
ic ers
ĠTrain ings
bereit et
St r
ĠMex ico
ĠL ittle
Ġst abil
Ġr ental
Ġzw eit
ĠL aden
Ġtechn ique
Ġend s
Ġren ew
tim ately
Ġkeiner lei
Ġaccep ted
B ack
ĠSm all
w all
Ġcor resp
Ġcandid ates
Ġdeg rees
, -
In s
ĠfÃ¼hr te
ĠBund est
ĠWe ib
Ġber aten
hy th
Ġum fasst
ĠLim ited
ĠY oga
ĠPro jek
st ung
st ahl
Ġbe we
re p
Ġm ac
Ġex is
ĠVerbrauch er
ck now
ĠL ist
ĠDre h
Ġy esterday
ĠDÃ¼sseld orf
ĠR ose
ĠGrund stÃ¼ck
z one
G em
Ġklass ischen
Z eit
Ġpro ceed
D och
ĠRe fer
ĠGet rÃ¤n
L et
ĠBÃ¼rger meister
Ġpolit ischen
Ġkont roll
Ġf ahr
fre ien
ĠAn frage
Ġpred ic
Ġdigital en
ĠDe f
od ay
ĠIt alian
Ġd ance
Ġsitu ations
Ġtre ated
Ã¼ mer
ers hip
Ġoper ate
Ġbehand elt
Ġeng ag
k rÃ¤fte
Ġp ed
ĠI ra
ĠMo der
rat ic
ĠS anta
Ġr Ã¼ck
ĠGrÃ¼ nde
Ġhotel s
Ġex pression
ell y
Ġsol ange
Ġc red
Ġb la
Ġiss ued
Ġk Ã¶rper
M eine
Ġfunction al
Ġkeep s
il iate
Ġca ught
er geb
ĠCol umb
lie fert
Ġf ulf
ĠRe isen
Ġexpla ined
ĠC N
Ġun n
Ġk Ã¼mmer
Ġge ld
Ġreason able
Ġinkl usive
Ġsil ver
qu ir
Ġne goti
Ġstark en
ĠKÃ¼ chen
ĠSek unden
Ġde part
ab er
Ġex tended
Ġb uchen
ĠF okus
ien ste
Ġhistor ical
ib il
ĠZ ucker
ol id
D em
ĠS ow
Ġsh oes
ĠDo es
Ġob ject
ĠVer g
b is
c ons
Ġbeg ins
ik on
ĠVer hÃ¤ltnis
ĠnÃ¶ tig
Ġvergleich en
' '
ion e
Ã¶r ung
ĠF urther
ĠL LC
ĠInstall ation
us ste
ĠtÃ¤ tig
Ġmon at
Ġrec over
Ġnorm ally
b rit
z ing
Ġtw ice
Ġschwier ig
aff ung
ĠParte i
wer ks
te en
Ġinnov ation
Ġkur zen
m essen
omat ic
tra gung
Ġeigen es
anze igen
Ġpriv aten
Ġinstitu tions
Ġmanufact urers
ie ger
Ġl au
Ġein iges
Ġbo at
P ub
Ġhous es
8 2
Ã¼ re
ĠD A
Ġaus zu
D ann
ĠK lÃ¤
ĠStre it
ĠGesch Ã¤ft
fÃ¤h ig
ĠW asch
ĠInf o
Ġdefin ed
Ġsearch ing
ĠDienst leistungen
ĠSta aten
Ġj oy
ĠRe chnung
ĠJ enn
P G
et ts
Ã¤n n
ver anst
Ġpl anned
ĠAn other
O B
Ġne ck
Ġsogen annten
ĠPro t
Ġkomp lex
Ġbro wn
ĠD om
ĠC ash
and en
ear s
d is
w id
vers orgung
ĠA ben
ĠD ating
An y
umin ium
ĠT R
Ġpl Ã¶tzlich
Ġprofit ieren
k ing
ou ble
de cken
w ach
ĠP fe
Ġgaran tiert
k us
Ġbut ter
Ġco ast
et ooth
u ary
Ġd ienen
ĠP y
Ġbek annten
ĠM ut
Ġentertain ment
ĠBe is
Ġter ror
ĠChild ren
gel assen
iss ions
ing u
Ġl es
ĠK laus
Ġfre edom
Ġge fragt
o be
ĠP ut
la uch
Ġt ri
O ut
ĠW are
ĠR ay
Ġb rit
ĠK atzen
Ġf o
Ġimag ine
Ġlic ens
Ġturn s
ĠSil ver
Ġattra k
Ġmed icine
Ġdig itale
ĠSchn itt
p ost
at um
ĠGew inne
ĠProfession al
ĠVirgin ia
Ġchallen ging
ĠN ation
c tic
ĠRed aktion
ĠVerm Ã¶gen
ĠKategor ien
ĠAre a
I B
b ec
ig s
An other
ĠOp fer
Ġdiffer ences
Ġein deu
ĠB in
ĠAus wirkungen
ã ĥ
Ġge Ã¶ffnet
Ġs at
Ġmar riage
Ġto llen
Ġinteress iert
ĠM oney
ing ly
ĠAr g
ĠHin weise
ĠZ Ã¼r
Ġre tire
Ã¤t ter
ch ain
ĠWh ats
ĠF ederal
Ġspe ech
ĠFried rich
Ġsch rift
s se
ath y
Ġs ac
Ã¶r ungen
ĠBe ll
Ġte eth
Ġvis iting
te am
ĠRe zept
grif fe
fra u
ĠÃĸff entlich
Ġdo pp
k tionen
ĠK im
Ġst opped
Ġag gress
ĠJe ff
it im
Ġsk ill
ĠL iber
Ġinsp ired
Ġris ks
Ġbit coin
Ġsupp orts
G ew
ĠP in
Ġst ain
Ġtele vision
Ġde ck
zeich nen
ĠIns urance
ĠVer stÃ¤nd
Ġcomp ens
Ġc ul
Ġtrans ition
ĠPr int
ĠDis play
as tern
p her
aus chen
ĠE R
Ġg olden
ĠG aming
Ġfac ts
iner y
K e
P reis
Ġf ein
Ġb auen
Ġcomp are
l ant
ĠR ight
ĠFakt oren
te hen
Ġerg Ã¤n
Ġcare fully
st es
E nd
od ge
Ġp il
Ġsch rieb
ĠS M
ĠBre men
ĠMc C
Ġequ al
opp er
zuf Ã¼hren
ĠM B
Ġreve aled
Ġst aat
B itte
f Ã¶rder
Ġvor ne
s id
m ut
Ã¼l tig
ĠH immel
Ġagre ed
z usch
Ġmoder ne
ĠS achsen
Ġ/ /
sp ar
AT E
Ġ8 5
yc ling
ĠDatenschutz erklÃ¤rung
w eite
id ays
Ġfl ash
Ġprakt isch
ĠCo ach
Ġph arm
tag s
Ġv eter
Ġman ual
Ġfell ow
e ah
Ġ upper
en cy
ol ge
urr ent
M ag
ĠNach dem
M any
Ġg lauben
Ġk Ã¼rz
Ġse he
ĠSchw ang
Ġentire ly
Ġasp ect
Ġst retch
Ġoff ens
ĠCh air
Ã¶ d
ĠEx ecutive
ĠMÃ¼ ller
Ġtra um
ĠBundes liga
erm a
lieÃŁ t
Ġfor ec
Ġget estet
z il
Ġv olle
Ġfoll ows
Ġm and
Ġren ov
Ġgro wn
Be im
ĠEst ate
Ġaccess ible
ĠCan adian
on ial
al o
ti ken
Ġwoll ten
Ġsuccess fully
B ew
Ġpow der
Ġpresent ation
unn y
Ġfr ustr
Ġclos er
os es
Ġd omestic
ced es
S earch
Ġep isode
i ÃŁe
ph an
ig are
Ġgu idelines
Ġsp an
Ġbel ong
ĠD rit
ĠAus gabe
ĠUs ing
ĠMid dle
Ġgew Ã¤hlt
ĠauÃŁer halb
ĠHins icht
t age
m ade
ĠS amm
ĠPh ase
ĠP ick
auf trag
ĠOr der
En g
Ġtell s
ĠBM W
Ġad s
ĠProdu ct
ĠCarol ina
6 00
N un
Ġcamp us
Ġad min
ĠJ ersey
us sen
Ġadv is
N et
Un ivers
ĠG ab
ĠDort mund
J ul
ress en
Ġaus s
L ike
Ġt or
ĠF riend
cht est
Ġkostenlos en
ĠF ro
ĠK rÃ¤
u um
Ġvor aus
uh ause
Ã¼ p
Ġv ibr
Ġf Ã¶r
Ġme at
ĠS tern
ĠM i
ĠE X
Ġmil k
opy right
ĠEr lebnis
end ers
ĠTh rough
zÃ¼ ge
Ġparticip ate
v i
k ommt
ĠTele f
Ġfor ced
Ġtechn ischen
Ġs izes
ĠBa uch
ĠerfÃ¼ llen
.. ...
ir al
Ġgener ate
ĠL Ã¤nge
ind ustrie
Ġze igte
ĠChamp ion
Ġle bt
ĠSp ace
Ġex ist
ĠZus atz
Ad d
Ġindivid uelle
Ġver Ã¤ndert
Ġro ugh
Ġent re
Ġwid ely
ĠKranken haus
Ġlie fern
Ġnie der
ag on
Ġcr ash
Â» ,
Ġs Ã¼d
ĠB oston
Ġt ight
ĠW eit
Ġobtain ed
T est
H P
Ġm ale
Ġvac ation
S y
Ġus ual
lie gt
H aus
J un
ĠK riterien
ĠB ody
sequ ent
Ġcomp r
P rÃ¤
Ġgemeins amen
Ġhor se
Ġber Ã¼hm
ĠHist or
ti ver
ad or
be ck
Ġpattern s
Ġent fernen
Ġk Ã¼
Ġhost ing
d ire
ĠEr g
ĠEx am
ĠC ovid
iet nam
ĠM ethoden
ĠGegen satz
ĠFrei heit
Ġnotic ed
Ġfor um
B en
Ġte ch
we ge
Ġwall s
b oden
Ġbl ess
Nov ember
ĠSp iegel
ĠAus stellung
ĠPl as
ĠL esen
Ġer leich
ord an
Ġt ested
ĠGer icht
ĠS old
Ġexpect ations
Ġver t
Ġsh ut
ĠGe gner
ber ech
ĠR un
ĠM ak
ay a
Ġbeein druck
R S
Ġaut hentic
n ame
l ager
ha up
Ġv ul
W or
schul d
L ear
w an
fer tigt
ĠB ag
etz ten
Ġa cknow
Ġperman ent
ud ge
Ġappe al
Cl ick
h yd
Ġt at
Ġfor mal
% ,
ĠD J
ĠFe atures
itu ationen
Ġl uck
Ġown ed
Ġfac ing
it als
Ġreturn s
ĠKrank heit
us che
ĠPr inzip
Ġzusammen ge
ĠZeit raum
Ġag ents
ĠR h
Ġsp rach
c ase
our cen
Ġ18 0
Ġverpflich tet
ĠBank en
---- ----
rÃ¤ umen
ĠBl umen
ĠFre unden
tain ment
Ġatt rib
Ġflow ers
ĠS her
Ġconduc ted
ĠT ool
Ġ3 60
en burg
ĠE D
frast ruktur
Ġt ables
Ġeff iz
] ,
D et
ĠPost s
** **
Ġb lieb
zie ht
ĠMay be
ĠF alle
Ġcons ists
eit her
ĠSte ve
ĠPol ice
Ġta ught
Ġfound ation
ra ce
ĠDe fin
rÃ¤ ch
I ST
ific ations
Ġmax imal
in u
Ġw itness
Ġk ill
Ġch icken
merksam keit
Ġung laub
Ġg olf
ĠGeb iet
ĠR ett
ac ted
â ĸ
ins on
Ã¤ sche
Ġincre ases
Ġrelig ious
ĠP ur
Ġd ring
ĠM ot
Ġaus geb
ĠSol utions
ĠB ull
ĠO pp
ĠR ess
Ġrecord ed
m achen
Ġwieder um
Ġcho osing
ĠWeihn achten
ix el
ĠOrd nung
Ġtre ten
rif ft
ĠDi agn
Ġla ugh
Ġwe alth
Ġcap able
reg ion
Ġsurround ing
Ġevery day
ĠKo operation
Ġcons ist
ĠSti ftung
Ġgu idance
f red
Ġjud ge
ir cle
ĠU V
ĠK leid
Ġcompon ent
Ġver hinder
sch ten
Ġres olution
Ġsuff icient
ĠTh ose
ĠmÃ¶glich en
ĠerklÃ¤r te
wer b
Ġa gencies
Ar beit
Ġhold s
Ġsurpr ise
ĠTyp e
S ec
ĠAm ts
Ġt ank
Ġausge zeichnet
ĠPublik um
ĠB ir
Ġwrit ers
Ġ199 7
Ar tikel
Ġsc ientific
Re view
g te
Ġposs ibility
Ġtele fon
Ġat mosph
gel s
ĠGesch ichten
Ġbr ill
Ġident ity
le ts
k ul
abe llen
ĠQual ity
od ing
ĠH ab
Ġte uer
Ġf ests
Ġne ur
ĠVor stand
Ġsugges ted
for schung
Ġstar tet
Ġnutz t
T w
Ġintegr ated
Ġfin ance
Ġrepla cement
Ġmom ents
Ġviel es
Ġhappen ing
in ch
Ġ> >
Ġrecogn ized
Ġelekt r
ĠP lace
ĠPort ug
Ã¶ nen
ĠG Ã¼
ĠfÃ¼r s
oul der
owe en
ĠEin en
ĠCo ast
Ġnear by
Ġn ennen
Ġnetwork s
f its
ĠLoc al
re chnung
ĠR u
Ġmus e
Ġdisc ount
Ġch arm
ĠDet ail
iert es
Ġh ur
ĠIn stead
Ġoff icer
Ġb anks
Ġselbst verstÃ¤ndlich
ĠVer band
Ġn ative
Ġhin weg
ĠGem Ã¼se
em ble
ann els
E mail
il st
hal ter
Ġresist ance
Ġn one
ĠM atch
us ing
sch rank
ĠE cht
Ġr iver
Ġhard ware
Ġeng age
ĠQu elle
w Ã¤l
Ġpar am
ere ll
Ġdel ay
ĠSch iff
it age
ĠlÃ¤ng st
Ġ5 1
ĠC redit
en ti
ĠAn th
ĠGal axy
isten ce
Ġlos ing
ĠS tell
Ġmy ster
Ġform ed
ĠF inger
Ġbirth day
w es
ĠFÃ¶rder ung
Kont akt
Ġm l
Ġcons istent
ind e
ĠFre ib
ĠDan ach
S et
ann a
P O
am ental
if fe
ĠR on
will igung
ĠbestÃ¤ tigt
Ġre form
Ġne un
vers ammlung
Ġgen u
ĠR ent
JÃ¤hr ige
H D
ĠVer waltung
b rand
ĠEqu ipment
Ġinvestig ation
Ġd ates
Ġth orough
Ġv illage
Ġsh ower
ĠNe ub
Ġinstr ument
ĠH alt
ĠÃ¶ sterreich
ĠT alk
âĢ ī
Ġpro of
m ont
sch iede
Ġwe aring
Ġregul ations
ke i
Ġstrateg ic
ĠL iving
ĠL at
ul ing
u an
wer ten
? !
ĠCap ital
ĠWill kommen
ĠAn lagen
Ġchamp ion
et ry
wohn ung
Ġmonitor ing
Ġmiss ed
B ar
ie fen
ann ter
Ġpla in
br idge
ĠAt mosphÃ¤re
ew ise
Ġfair ly
Ġe ignet
F ahr
ĠgrÃ¶ÃŁ ere
im it
Ġch ocolate
st ab
Ġaus drÃ¼ck
Se hr
Ġpick ed
w atch
ĠM ount
ĠC ry
Ġlink ed
ĠChar les
iz ont
Ġrelie f
ĠF ett
Ġben utzt
Ġexce p
S ince
me ll
200 6
Ġrecogn ize
ie ben
Ġlik es
Ġlif estyle
ĠAd vent
ecess ary
m ag
Ġfram ework
On ce
c lass
Ġent hus
Ġcount y
ent scheid
âĢĿ .
ĠFranc isco
Ġs alt
ran che
ĠK ein
Ġz erst
Ġinter face
Ġw and
ĠWor te
ĠE T
ĠHeraus forderungen
A F
Ġer Ã¶ffnet
Ġauthor ity
Ġdanger ous
in yl
old ing
ĠProf il
Ġtr ends
Ġchem ical
prÃ¤s ident
Ġdep th
id t
Ġall gemein
ĠJack son
ĠZ ul
ĠCom ment
Ġspe zielle
ĠC a
ĠR og
ah a
Ã¶r sen
sprÃ¼ che
ĠTra ding
ĠN erv
Ġent lang
ĠT hr
ĠInnov ation
ĠB Ã¶
ĠKar riere
Ġstand s
Ġdiscuss ed
Ġaus prob
ĠB oot
H ol
Ġf irms
ĠP ok
Ġcandid ate
ĠD arm
ĠDire ct
Ġcharge d
fl ix
ĠM E
OR T
ĠÃĦnder ungen
Ġo vers
Ġlight ing
g ie
Ġl aden
ath an
ĠBook s
Ġe ase
Ġf iel
N ur
Ġ19 80
al te
Ġturn ing
Ġer folgen
ĠChar l
st ate
hal f
ĠPay Pal
ag ram
Ġsupp liers
ĠS timme
ĠM D
iden schaft
Ġav ail
Ġmill ions
ge geben
ĠUS D
Ġposs ess
Ġfil ms
Ġst ored
le ments
ĠKon fl
ud es
ĠCount ry
wert ungen
ĠEink ommen
ĠM ission
ĠH ub
ĠIntern ets
i ac
r hein
Ġc able
ĠIm age
Ġp od
ĠV ar
Ġte en
ges pr
Ġerg ibt
Ġ199 6
ov en
as ted
isch t
Ġon going
ĠCh at
ĠmÃ¼s ste
Ġc odes
Ġte lling
se x
Ġge be
f unden
ĠG rie
Ġun f
ĠZ ubehÃ¶r
Ġentre prene
ĠSaf ety
p ower
ra chten
Ġexpos ure
ĠStrateg ie
Ġadv oc
ans as
Ġtr ick
k opf
Ġspirit ual
Ġmeet ings
ĠAn zeige
ĠJugend liche
ĠRe qu
Ġfit ness
Ġeinfach er
ĠA sh
Ġconfirm ed
Ġt alent
ĠW under
He ute
Ġw et
ĠVarian te
ĠM indest
ĠEin richtung
ĠOp tionen
Ġdurch schnitt
Ġt iss
iz ierte
ĠPers pek
zip lin
Ã¶ff nung
Ġa wareness
Ġh all
ĠEn vironment
ĠM ade
Ġbe haup
Ġfac ilit
ĠM ethode
Ġ Ã¤r
Ġstud io
Ġille gal
T P
Ġhe ight
Ġverm utlich
ĠZus timmung
ĠG R
Ġspl it
ĠN am
ĠT ips
Ġimplement ation
ĠDres den
ĠC L
Ġperson ally
ĠN at
ath on
ĠP aar
Ġeinfach en
amen te
Ġd auert
Ã¤ch er
ĠÃĸffentlich keit
ĠStÃ¤d te
Ġs essions
eld et
Ġein zu
ĠProgram me
g Ã¤nger
w ander
ie te
Ã¤nd igen
Ġwith dra
ĠBes onder
ĠunabhÃ¤ng ig
Ġman aging
Apr il
J ohn
ĠZ ertif
ĠJ im
ĠZ uhause
ĠEin fÃ¼hrung
Gr und
ĠQue en
Ġqual it
re ten
j ust
ro lling
ĠAl ten
P erson
Ã¤ h
Ġur ban
ĠK amp
ĠL ad
ĠAl kohol
s he
Ġvor gestellt
Ġess ays
ĠFor men
ĠSy mbol
r unde
u ction
Ġt ast
ĠB udget
Ġ5 6
M I
ĠF eder
hol ung
ĠJose ph
ĠD id
ik o
Ġdest o
Aug ust
ĠW he
Ġmix ed
use um
Ġt ip
Ġl us
ĠS av
Ġp itch
Ġra il
Ġgeb oren
ĠFil ter
ĠR enn
EL L
ĠRed e
Ġqualif ied
Ã¤hl ten
ĠAir port
ĠH ope
Ġt icket
Ġget roffen
Ġget r
ĠW ire
A c
Ġter r
wie gend
ĠIntegr ation
f akt
r ite
ĠS ir
Ġm a
ĠT en
ĠSe a
Ġfunktion ieren
ĠO ffen
ĠWilliam s
leucht ung
, .
ĠTe e
Ġaus wÃ¤hlen
Ġsp aces
Ġrep ly
ĠHome page
E X
ĠS H
ĠJ ub
ĠB la
ĠIn itiative
ĠDien ste
Ġcloth es
Ġv ast
ĠP aper
ĠCor poration
se ll
o en
b b
Ġl Ã¶sen
ĠO K
x x
ĠstÃ¤r ker
ol t
ĠNe ed
Ġplan et
auf nahme
ĠRe f
Ġreport ing
ateg ories
ĠBahn hof
Ġad ministr
D isc
C S
ĠClass ic
ĠSpiel othek
Ġwill st
Ġ5 4
Ġcont rast
F amil
Ġh oh
ze llen
em an
Ġge ziel
ĠSpe icher
ĠTats ache
g y
ĠSt ruktur
Ġlik ed
ĠF our
ĠCustom er
ĠAuf merksamkeit
Ġindivid uellen
y ard
ĠN umber
ol ven
Ã¤f te
Ġbe wegen
Ġmeisten s
ĠHerr n
ĠAust ausch
ĠG ute
ĠerhÃ¶ hen
Ex per
r ia
Ġutil ize
Ġviol ence
ĠWell ness
Q ual
ic als
cep ts
Ã¤ use
o tive
ge fÃ¼hl
d pa
ĠT i
Ġpolit ische
Ġredu ction
hold ers
ĠNe ues
Ġco ordin
ĠSchlaf zimmer
ĠBel ast
Ġin ches
Ġin ten
Ġsc ient
c ard
ĠVor der
ut or
Ġbas ically
utz ung
Ð º
Ġb order
oc iate
Ġbes itzen
Ġzu gleich
ĠRes ort
ĠK linik
piel en
Ġlux ury
Ġb ond
Ġl abel
Ġehemal igen
ĠW es
stell er
ĠW LAN
Ġge fÃ¼
k unden
ĠN Ã¼rn
ver brauch
schul en
Ġfre ien
Ġe Bay
and y
T ipp
Ġp hr
ĠT aschen
Ġno ise
Ġdeal ing
Ġersch einen
ĠN ormal
Ġge grÃ¼ndet
ĠSter nen
h orn
ĠC ON
Ġenter prise
Ġt ack
Ġlet ters
or ters
Ġcl ar
Ġdepend s
ĠHar ry
ĠD ark
i ated
Ġt ab
ap ing
h s
Ġh art
B O
Ġsh ift
ĠT ok
Ġle ague
Ġun able
Ġle gt
ĠWohn zimmer
P f
ĠSing ap
iam i
Ġspe ichern
Ġch apter
ĠIt aly
ock ey
Ber lin
ixt ure
Ġs itzen
ĠAuf nahme
ĠG ru
ĠH R
ĠH im
Ġpl atz
Ġup coming
% )
ĠP ast
ategor ized
Ġcrit ic
ĠS O
ĠT ay
ĠS W
IV E
iegel t
Ġwer fen
Ġho her
ĠV ision
ĠB achelor
Ġtra ve
ĠS ummer
ĠK ong
ĠPak istan
Ġauth ors
ĠCh ange
amp en
Ġrefer red
er ung
ĠSch war
utz er
C omm
ĠT ank
Ġconst ant
A K
aff e
ĠprÃ¤sen tieren
Ġsich ern
ĠZ ut
Ġatt orney
Ġpre m
Ġimpro ving
S uper
Vers ion
j ected
ĠO t
nis sen
Ġelect rical
gemein schaft
ĠE asy
ĠS ony
Ġrev olution
ĠWachst um
Ġtra il
Ġpain ting
Ġan ticip
zieh ungen
ĠD ream
den s
M r
ĠVer waltungs
Ġconf ident
Ġres ul
ziehungs weise
we b
Ġtro cken
Ġsup erv
Ġinde ed
zus etzen
Ġr u
b lock
Ġm or
ic an
Ġbo ys
Ġenc ounter
os c
Ġgest altet
Ġun w
Ġres idential
ĠArbeit nehmer
Ġcontemp orary
G reat
ĠQ ues
ĠProm o
ie ce
e u
ĠLe on
ĠFor der
Ġein sch
Ġthro w
Ġangen ehm
ĠN S
ĠprÃ¼ fen
Ġge ar
ĠGest altung
ĠK la
ĠS ind
ĠB rad
mod ell
ĠVorauss etzungen
ar ent
Ġsch me
iden z
ĠBr enn
ĠH yd
ĠMin ing
ble men
Ġele v
lin der
Ġconsider ation
ĠA z
pr int
ĠStaff el
ĠAufent halt
Ġdesign er
ĠVertra uen
Ġv end
ĠAr me
Ġ199 5
hÃ¤ng ig
olit ik
ĠWik ipedia
h ause
Ġch ances
Ġsty les
Ġm ountain
ĠR osen
Ġsc ores
ĠO x
k es
ĠKom fort
Ġal ign
ir r
he tic
part y
Ġste igt
Ġg rew
ĠĠ ĠĠ
k omm
ĠSpe ed
G A
yste men
ĠBer at
ĠRab att
Ġsav ings
Ġsch afft
ĠSchne e
Ġw inner
Ġcol umn
ĠglÃ¼ck lich
Ġfeature d
age l
ep ing
Ġs aving
ĠAut ob
ĠSt yle
ĠInvest ment
ĠBed ien
ĠEx pert
h ome
Ġgu ard
ut her
Ġa uÃŁen
Ġwar rant
Ġple ased
Ġr ichten
au x
Ġs ick
Ġcr ime
wor ld
ĠG esell
spl an
Ġresearch ers
rup tion
Ġintrodu ction
< /
ĠK ino
Ġmach e
che ck
ende te
Ġcommit tee
Ġeng agement
friend ly
B usiness
Ġk ap
ĠF act
Ġimpress ive
Ġcompar ison
b Ã¼rger
ĠLear ning
Ġattach ed
Ġprefer red
sch merzen
oun ge
Ġaddition ally
ĠBu ilding
er a
at isch
Ġge e
ĠAut omaten
athol ic
E P
z ed
ro llen
Ġk inder
oh le
ĠKing dom
on enten
Ġc raft
ĠTra de
ĠH ollywood
Ġman che
we ar
w eiter
ĠD oc
Ġair port
ĠBro ok
ĠLin ux
Ġd pa
Ġattack s
ĠT ickets
Ġmus cle
et ers
Ġor ien
ĠGes am
iz ierten
ĠPriv ate
ĠB ible
ĠAn zeigen
Ġed it
ĠGrÃ¼ nen
Ġno tif
Ġsever e
Ġf if
Ġj ew
Ġfr isch
R ad
Ġwor st
Ġsex ual
Ġnahe zu
ĠAd am
ĠL or
ĠPat ient
ĠB oy
gr Ã¶ÃŁ
att formen
Ġob jects
ĠF REE
Ġg esellschaft
ĠAnd rew
ĠP ul
Ġentde ckt
ĠPriv acy
T oday
ĠTeil en
ĠVerÃ¤nder ungen
ste igen
ĠCh allen
Ġinteress ante
Ġsozial e
he w
ben e
ĠBe h
ĠDon ald
Ġanc ient
G ood
er ed
Ġdefin ition
Ġmembers hip
Ġg od
Ġbe it
u tel
am ber
erg ie
k w
pr icht
Ġsustain able
ĠK Ã¼nd
v ents
ĠP L
Ġso fern
Ġimp ossible
ĠNatur al
Ġh ook
ĠE ll
Ġhin ten
ĠForm at
Ġcondu ct
I K
end ed
ĠPr in
Ġc orn
ie ter
Ġgeb aut
ĠG ang
E mp
Ġy ellow
Ġenter ed
ĠU RL
ĠNutz en
Ġshoot ing
Ġatmosph ere
ĠE hren
lapp t
Ġan onym
bur y
ĠN ar
V P
ur laub
Ġpurch asing
ĠVer y
TM L
C L
c s
Ġbe ziehungsweise
ĠF a
Ġk orre
Ã¤tz ung
Ġp hen
u i
Ġst ake
th a
ĠSpan ish
k ar
ir at
ĠNe ver
ĠSch merzen
C ons
ĠO P
n icht
ĠH it
ĠB ron
ĠL A
ĠC ell
n t
Ġk Ã¼nd
Ġfor th
eins am
ĠPf licht
W elt
Ġs Ã¼
F unktion
J u
Ġoffen bar
Ġar ts
ind ex
Ġele gant
on ed
Ġt es
1 50
Ġto urn
ĠB ene
ĠP oint
Ġauf treten
Ġclos ely
ĠG lauben
Ġregel mÃ¤ÃŁ
ĠQu ick
â Ī
ĠStud enten
minister ium
k onto
iss es
ĠTr ust
ĠOh io
B undes
hab t
m eter
Ġt ritt
th at
o ÃŁen
S el
ĠSch reib
Ġcreat es
Ġ7 2
Ġjeden falls
d t
hel m
room s
Ġserv es
ĠSpan ien
Ġso il
ĠMich igan
ĠF ashion
Ġprogram me
Ġextre me
ĠM ap
ĠH Ã¤nde
zahl ungen
ĠZ uge
Ġver ab
bar ung
ĠVo gel
ð Ŀ
ĠAus nahme
Ġoff icers
Ġpro ve
Ġcontinu ing
Ġsk y
ĠB od
par atur
ĠB an
Ġauthor ities
n ic
ĠM otto
Ġcolle cted
Ġsp r
Ġar ms
D an
ag ues
ĠDiv ision
K inder
Ġfig ures
ĠFore x
Ġp ill
ĠAn na
Ġindustr ies
tic les
K l
il ien
hal tet
O f
B re
Ġcommon ly
ĠJugend lichen
Ġemo tion
Ġhol en
Ġtax es
ĠBedÃ¼rf nisse
Ġexp enses
Ġmort gage
ĠEin richtungen
ĠS now
Ġer geben
ĠZusch auer
Ð »
Ġgemeins ame
Ġf iled
ov a
r ug
B E
Ġc ake
Ġj aw
Ġadd s
Dam it
An tw
ĠWh ich
st rom
end orf
Pl ay
Ġsch olar
Ġm aÃŁ
ĠL en
Ġhin ein
w etten
Ġappoint ment
Ġsu c
stoff en
ĠL ew
gr Ã¶ÃŁe
geb racht
qu es
Ġinform ed
ĠBay er
Ġmin ister
ograph ic
Ġver letzt
Ġg rÃ¼nd
Ã¤hr ungen
Ġlog o
ĠQual if
Ġgradu ate
ĠHa are
ĠP ed
ĠVit amin
ĠPre mier
Ġw enden
Ġbre it
Ġget an
Ġrecommend ations
ĠT reat
Ġunbe k
H a
Ġmatt ress
w urf
Cont act
Ã¼ ste
s ite
ĠP unkten
p df
ĠI ron
Ġmo ist
ĠSpe icherung
ĠHÃ¤nd ler
Ġan tw
P ass
in sen
Ġ5 3
Ġer led
for cement
ĠBes tell
Ġt iny
bar es
ĠO bst
ot ton
Ġfre ie
Ġsurpr ised
Ġvers ions
Ġless ons
ĠSchw ier
Ġverw and
Ġarg ument
Ġhe av
Sep tember
ĠH alle
Ġsol ve
Ġw asser
ne ys
ĠIn halts
ges tellten
ĠD ynam
Ġgr ass
ĠM esse
ĠD R
Ġimmed iate
Ġmein es
Ġche ese
I O
N S
ĠAn leitung
Ġein schlieÃŁlich
ĠC F
ĠTh ree
Ġpr ison
ĠK ost
ĠAnaly tics
ĠB ou
Ġinv ent
ĠAd ministration
Ġsugges ts
ĠLauf e
z ur
in formationen
Ġgra b
re y
ĠL i
ĠSch ritte
ĠJahr zehn
ĠBe am
Ġhal b
Ġfre ue
Ġcr iminal
Ġf asc
seit ig
Ġmag n
ĠSch ad
Ġsub mitted
ĠmÃ¶glich e
F ig
hl ung
ĠAus druck
Ġhon or
ĠH ack
b ald
ĠP os
Ġsh ops
ĠWebs ites
ĠStud y
Ġk o
Ġpro ven
Ġneues ten
app ing
Ġgr ant
B ER
Ġproduc ing
stell ungs
Ġorder ed
ĠLud wig
ĠVer pack
Ġvor gesehen
D i
Ġs ending
Ġden k
Ġfe hlen
is ierten
Ġg ifts
ĠAg ain
Ġspecial ist
re iten
Ġvor s
Ġletz ter
Ġl ucky
ĠK eller
O ther
umin um
Ã¤us ern
W Ã¤hrend
ĠS D
Ġprincip les
em pl
f rom
Ã¤nd ler
Ġwhen ever
med izin
ol i
Ġresult ing
Ġnew sp
ĠBet reuung
C asino
ĠAud i
bas tian
S M
ĠGr Ã¶ÃŁen
Ġge prÃ¼
fer nung
spro zess
Ġqu ote
ĠWolf gang
Ġtrig ger
F ollow
V C
Ġver arbeitet
sp f
Ġaccompl ish
Ġintern ationale
Ġlov es
in tend
Ġbelie ved
Ġout comes
ĠhÃ¶ here
Ġport folio
ĠBran chen
Ġprim arily
pre ise
ĠGraf ik
ĠT ouch
ĠColor ado
Ġpersonenbezogen en
ĠH yp
Ã §
ibli othek
Ġeng l
m aking
ge fÃ¼
Ġan melden
ast rop
k ind
ĠH d
Ġconcern ing
ch ron
Ġv ictory
ĠV irt
I hre
ĠGeschÃ¤fts fÃ¼hrer
ir ation
Ġsched uled
et ze
ĠG row
Ġtra ined
ĠA wards
Al though
Ġhier bei
el en
Ġcoun sel
ĠH il
ĠE C
Ġev ol
Ġserious ly
et ch
rÃ¼ stung
Ġ1 10
Ġdescrib e
ĠSch rift
fass ungs
Ã¼t ze
produ kte
wir ken
l ow
ĠEurop Ã¤ischen
ĠF ox
ĠMus lim
Ġad apt
ĠE L
z i
Ġj ustice
lei hen
ol is
Ġadvant ages
es ents
ĠAkt uell
ĠTh us
iz ienz
ink ing
Ġsch lieÃŁen
Ġcolle ges
ĠFl ash
Ġben utzen
Ġhand eln
ĠP rior
Ġill ness
ĠBau ern
ĠSim on
Ġinves tieren
ĠAp othe
ĠParte ien
Ġb undes
ge ht
Ġsm ile
ĠO d
lad ung
Ġfight ing
ĠD ig
pl us
v as
ĠB ase
Ġd raft
ĠSt an
ĠSp a
Ġtom orrow
own ed
com p
zeich nis
Ġyoung er
ar tikel
B el
ĠÃ¼ber zeugen
D ire
j pg
ĠL E
H igh
Ġmer ch
Ġhers elf
ĠL otto
ĠN RW
Ġge Ã¤ndert
clud ed
Ġbra chte
Ġimp lemen
Ġrep utation
ĠAk tionen
Ġinvol ves
Ġ5 8
Ġpass ing
ĠD ol
Ġd ental
Ġra w
Ġevalu ation
Ġlandsc ape
D is
Ġme als
Ġerinn ern
zug s
Ø §
ĠW ars
ĠV om
ĠVers uch
Ġkurz er
ival ent
Ġit alien
ĠVerstÃ¤nd nis
ĠPh otos
ĠR Ã¶
for um
Ġdis pos
rit ts
Ġp df
ul iert
ĠL izenz
Ġerinn ert
ig ran
Ġherz lich
ĠCon st
ak tieren
az ier
ĠC ook
Ġcollabor ation
B ox
ĠProduk tions
Ġbl ind
ĠRev olution
he il
Ġs la
AC K
. ),
ber ater
Ġfe aturing
lie genden
L ab
Ġlie fert
Ã¤ st
Ġorigin ally
oc ation
Ġkennen lernen
w Ã¶rter
ĠUnter nehmer
ĠViel falt
Ġverd ient
ĠCamp ing
Ġrele v
Ġab use
Ġ5 7
Ġachie ved
Ġearn ed
Ġgar age
200 5
ĠB L
ĠK op
ust on
k g
h och
Ġple asure
ĠElect ric
ĠZ en
ĠHeraus forderung
ĠFin ance
ĠSer ien
ivers ary
OR E
Ġanx iety
ĠErw art
Ġrob ust
G O
In formationen
Ġfrei will
ĠBÃ¼ hne
ĠSchul d
Ġb id
Ġrepla ced
ĠNach hal
bre it
Ġa ges
Ġz er
S cript
ĠMag azine
Ġch annels
ĠVer n
fÃ¤ llen
ĠF ed
Ġdest ination
Ġr ig
Ġerh ielt
ĠK andid
Ġverz ichten
R em
ĠS elf
ĠId ent
ĠGr iff
Ġs hr
ĠReg ister
Ġcrit er
Ġwid ers
nungs zeiten
ec ific
Ġ q
Ġz one
Ġfavour ite
h ist
B as
okrat ie
Ġread er
st uhl
oc ial
ond a
Ġeigen er
ĠH ous
We b
ĠEx change
Ġdynam ic
Ġe chte
uch st
ĠUm fang
sc reen
ĠT ief
Ã¤nd ige
Ġorgan ized
C R
ĠBe hÃ¶rden
ĠMet al
Ġrel ative
ĠB B
Ġrefle ct
Ġbe er
ĠSh ould
gem Ã¤ÃŁ
Ġelig ible
?? ?
ĠVer Ã¶ffentlich
Ġgesetz lichen
âĨ ĳ
Ġ uk
ĠIn ner
Ã¤r t
A Y
bie tern
Ġstay ing
Ġen ables
Ġl y
Ġf inger
ĠKit chen
Ġbede ut
Ġde fe
ow ing
o tic
Ã¼r gen
Ġup load
ĠÃĦr zte
Ġperform ing
Ġsamm eln
: .
ar on
Ġret ain
ĠGeorg ia
ĠsÃ¤mt liche
W ind
Ġrem ark
er ts
ĠT ry
Ġadv enture
Ġsch eme
Ġobs erved
ĠPhil osoph
ĠW affen
Ġpro min
ersch utz
ĠCar l
ĠRelig ion
Ġt ac
Ġhand ling
Ġfla vor
Q L
ĠEntscheid ungen
ĠBr ust
ĠGr atis
Ġoffen en
Ġunder st
Ġcra zy
wir kung
ĠH ong
he ber
ĠV ietnam
Ġhop ing
ĠZÃ¼r ich
Ġb odies
ĠM ethod
E ven
Ġinspir ation
Ġcapt ure
Ġdec ade
pro of
Ġreg ions
Ġdefinit iv
gest altung
ĠAn alysis
Ġf ur
ĠFahr zeuge
st ark
Ġb ull
Ġpercent age
ĠS aint
Ġstat ements
ĠBil dern
Ġer lÃ¤
ron ics
ĠPat rick
Ġcloth ing
Ġm ask
aw a
gre if
C ol
f alen
ĠSch merz
Ġpres ents
Ã¤ se
th eless
ĠStra f
Ġtransport ation
ber ichte
ĠSe ele
Ġin tell
b eln
Ġam ounts
ĠmÃ¶ chtest
Ġwire less
ts el
ĠR ap
Ġre action
ĠS ize
Ġs timmt
Ġge zogen
ĠStre cke
ĠIns gesamt
EC T
Ġempf ohlen
ĠN avig
Ġrequire ment
ĠH u
ĠDire kt
Ġbeliebt esten
Ġhilf reich
m ale
erma ÃŁen
f ig
ro chen
Ġexper im
Ġreal ized
ĠInd ustry
ĠSout hern
Ġd uty
Ġprepar ation
row s
Ġrepr esents
ĠStat us
reit et
c tice
h ungen
ĠM un
h st
we ig
ie ur
ĠL iga
men ted
ĠSter ne
end em
ĠP osted
Ġus age
IL L
Ġdest roy
Ġwechsel n
ĠFoot ball
Ġmatch es
Ġmag azine
Ġfl ag
rÃ¤n kungen
Ġsugges tions
Ġruh ig
Ġdes ired
Ġe h
ĠAuf s
Ġok ay
ck et
Ġeing et
Ġlisten ing
ĠRei hen
v ia
if orm
ĠWÃ¼n sche
ĠColle ction
ĠEntwick lungs
ĠFÃ¤h igkeiten
in ar
l ament
ĠM eld
Ġen em
ĠStud ents
hÃ¶ he
ie ht
ĠH em
ĠBlu etooth
it at
Ġwill kommen
ĠW agen
Ġfun ny
Ġan erk
ĠK ab
ĠRoll en
ĠTable t
ĠKlÃ¤ ger
k ammer
ĠH als
ĠfÃ¶r dern
âĢ ĺ
iz ona
ĠPl ug
g f
ĠBre ak
ĠWir d
ĠLeit ung
ĠÃ¼bern ommen
ect ors
gesch Ã¤ft
ph a
ĠHoff nung
it o
B lack
M et
Ġge gangen
ock en
licher weise
ro se
Ġirgend wann
b ound
Ġh urt
e ing
uch tigkeit
Ġtr ib
ĠEben e
Ġerziel en
el ry
Ġbott le
E U
ĠTex te
Ġt ub
end a
ĠI ss
ĠMitarbeit ern
Ġpar allel
G l
u ages
y o
Ġ19 70
Ġcontrib ute
D ER
F ar
Ġass ume
ĠEin blick
p o
wh el
Ġho le
Ġincred ibly
= =
Ã¼r k
ĠSp itze
ĠHerstell ung
to o
amm elt
el and
Ġremov al
Ġd ad
H z
k eln
ĠFor ce
ĠJohann es
Ġcelebr ate
Ġcateg ories
Ġhy per
Ġwir k
anz ler
Ġst unning
Ġsupp lement
Ġpolit ics
W Ã¼rt
Ġund ert
Ġy ield
Ġequ ipped
ĠKore a
Ġd Ã¼n
ĠDenn och
Ġsome what
b io
Ġproblem los
Ġobvious ly
k ultur
os a
ĠRe chn
Ġslow ly
Ġre ducing
Ġa de
kur renz
S a
rip tion
ĠBalk on
ĠauÃŁer gewÃ¶hn
Ġde aktiv
Ġ5 9
rank ung
str ateg
Ġpoten tially
ĠFreund in
Ġver stÃ¤nd
id em
ĠP ump
ĠErwachsen e
Ġer lebt
Ġcertif ied
ĠR ights
st art
re gel
Ġsor ry
Ġaus sehen
Ġc ookie
Ã¤ ure
Ġmov es
ĠIn g
ĠAr ticle
he bung
ĠMon itor
ĠAben teuer
du ate
Ġ199 4
uth aben
ĠK G
est one
ĠRe zension
oo ter
le ister
ĠNach mittag
IC E
Ġrout ine
and e
ĠD omin
Ġch art
Ġhe ating
Ã¤uf ig
Ġmur der
Ġviel er
ĠUm feld
Ġbr idge
ĠH oll
ĠAus stattung
ĠAb lauf
ĠAut oren
ĠA U
Ġk r
mal ink
ĠWir k
frei heit
ĠhÃ¶ch ste
Mar kt
Ã¶l f
Ġd ust
ĠEin willigung
ĠTechn ologien
ĠSc ot
Ġgesch affen
Ġweek ly
pl iziert
Ġhighl ight
Ġs enden
ob ald
Ġp ink
Ġliter ature
Ġlist ing
Ã¤ ger
Ġprogram ming
Ġcommun ications
ĠGesch windigkeit
ĠArm y
ur st
Ġde ut
kl ass
az it
Mit glie
ĠHard ware
ĠD M
ber eiten
Ġincor por
ĠA qu
ĠAuf grund
Ì Ī
esen ted
ĠGu ard
ĠVer bind
u ens
Ġein iger
Ġsav ed
ĠÃ¤uÃŁer st
Ġsec tions
ĠBr un
ĠEdel stahl
Ġto x
Ġinj uries
Ġn Ã¼tz
Ġpriv at
ĠBut ter
ĠK ryptow
Ġaus ger
WÃ¼rt temberg
Ġste uer
ĠT y
Ġsuper ior
Ġkom fort
ĠMed icine
k unde
kir chen
ĠKonz ert
Ġzu hause
F S
Ġdes k
pro fit
? )
Ġdef ault
Ġacqu ire
it able
ĠN FL
ĠSp ar
ĠMer cedes
er am
Ġm athemat
Ġrec ording
Ġ7 00
ĠBran che
Ġc lock
ĠStud ies
Ã¼t ter
ro ph
ĠP ow
el ter
Ġle ather
ĠNov oline
ĠL ese
âĢĿ ,
Ġattra ctive
Ġge legt
ĠC S
st unden
ĠWohn ungen
k ord
al m
Ġman agers
ze ll
ĠL ib
Ġb ars
ers te
Ġsome where
ĠM iet
wer de
Ġbeg leitet
ĠJ ungen
ĠTr ends
ĠD unk
olog ist
Ġsc ript
ĠkÃ¼nf tig
ett bewer
Ġfund amental
ĠF Ã¤lle
S upp
hand lungs
z Ã¼nd
ĠDie t
pp chen
sprech er
ĠWahr heit
ĠÃ¤ uÃŁ
for dern
ver halten
Ġb are
ĠW riting
Ġobs erv
ĠG T
Ġpers ons
h u
Ġmag ic
Ġfact ory
ĠA mp
Ġsp oke
ĠT oy
Ġcontrol led
Ġul timately
analy se
Ġakzep tieren
ĠDar stellung
Ġcaus ing
ĠRes ources
app e
AS S
o ter
Ġfor dert
us ten
ĠSom it
gyp t
Ġkn nen
ĠD NA
ĠSo ft
ĠBereich e
Ġd achte
fÃ¼hr ten
Ġdevelop ers
ĠIn fl
Ġstrugg le
ĠPac ific
ask a
ĠZahl ung
T rans
el be
Ġvis ited
se y
Ġsol cher
Chr is
D anke
ot yp
ĠMotor rad
c i
ĠfÃ¼ hlt
enden ce
ĠS timmung
ĠjÃ¼n g
Ġd ual
ĠAf ghan
ĠPak et
Ġh idden
ĠT ob
av id
ĠgrÃ¶ÃŁ eren
ell o
Ġtalk s
c or
ã Ĥ
Ġn utrition
ly n
ĠBer eit
ĠR uf
Ġkein es
ing ers
Ġad ap
ĠAl bert
ĠEnter tainment
ein anders
ag entur
Ġgem ein
am ine
ĠPh one
Ġfeel ings
Ġany way
Ġoff ices
O UR
Ġf ishing
ĠAb sch
Ġext ent
Ġz ero
Ġcap abilities
ok ol
Ġbeg onnen
s ub
fel der
ĠWeiter lesen
Ġe chten
Ġnormal en
it ut
st oÃŁ
A U
ĠDate i
Ġman ip
oc ur
ĠErw eiter
Ġd ran
ĠHen ry
Ġer fre
ro tz
Ġ6 6
Ġeinges tellt
ĠHe art
Ġre ichen
Feb ru
sta at
nah m
alt ungs
ti ble
Ġstruct ures
Ġvul ner
n s
Ġbuy ers
Ġcontrol s
Ġo ught
Ġnur sing
Ġro les
ĠD rei
Ġleben s
ach es
B esch
Ġqu otes
Ġspe ziellen
ĠVier tel
ĠK ath
Ġestim ated
Ġconn ections
Ġinc ident
Ġl ies
Ġfre ut
Ġconf igur
ĠChris ti
ĠerwÃ¤ hnt
ĠB enz
ul ator
S ign
ĠInstit ut
H och
L a
Ġb io
Ġk ulture
Ġent stand
ĠN orden
ĠMin eral
lich em
ĠOb wohl
ĠB urn
Ġge habt
off er
Ġcons umption
ver kauf
Ġbl ank
ĠÃ¼berprÃ¼ fen
Ġp fle
Ġrat io
ĠA gr
ĠB ord
Ġcur rency
ersch ein
ĠB onn
Ġse ats
2 50
ĠH ost
Ġch ose
ĠDe ad
Ġve gan
Ġspe zial
ĠSh ort
ĠSome times
ĠTemperatur en
Ġconfl ict
ial e
Ġgu itar
sk i
ĠAnwend ungen
Ġ ip
ron en
Ġerst es
ub a
Ġexce ption
ĠW en
Ġy ards
bar a
li ament
Ġarchitect ure
c al
Ġhum ans
Ġregard less
ĠA V
ĠAuf wand
usst sein
ĠSar ah
sie he
ul um
Ġinstitu tion
ĠF ield
ath aus
ĠR ennen
Ġgere cht
Ġl aptop
b n
b ow
ĠVer lauf
Ġro ot
ĠM iami
th is
Ġcharacter istics
et o
ĠVarian ten
w enn
Ġpass word
ĠPet ers
ĠW arn
ers atz
Ġtreat ments
ĠHall oween
prÃ¤ gt
erm in
Ġall gemeinen
ĠZe aland
Ġexp ansion
Ġmark ed
Ġrech nen
gend es
ĠPlay er
Ġges und
zep tion
Ġf as
b art
on ia
orge ous
Ġdro pped
Ġlegis lation
Ġdes wegen
iz en
geb Ã¤
ĠAs ian
los ure
ĠAn ne
Ġph ones
Ġlim its
Ġunivers ities
ĠAn lass
P P
Ġb ags
Ã¤ cht
ĠH afen
Ġ9 78
ĠCont ra
a is
g Ã¤
Ġretire ment
Ġh ate
c enter
ĠIS O
ĠVor bereitung
Ġ[ ...]
os m
or able
ĠT OP
ĠBe auty
Ġj ene
Ġcre w
ĠEnts p
r un
k ins
le e
ĠIm pressum
Ġopp osite
ĠÃ¼bern immt
ile t
zuf Ã¼gen
ĠzusÃ¤tz lichen
ul pt
we ich
if ying
Ġextens ion
i ess
Ġh ins
ĠM all
ĠOff icer
Ã Ĺ
ĠStand ards
i ot
Ġacc ord
tic ally
Wh ere
Ġge wohn
ĠEss ay
mus ik
B R
Te ch
ĠT asche
Ġ3 50
ĠSe ason
Ġexpress ed
ĠAn griff
ĠInd ex
Ġlaw yer
ĠKe vin
g ig
ĠG reg
ĠSqu are
ig entlich
st ern
Ġp ad
Ġcomp at
and al
leg ten
Ġgew Ã¶hn
Ġge le
ĠArch iv
Ġnu clear
ĠTerm ine
ĠNied ers
ĠK leidung
ĠEm o
K S
Ġappro val
pret ation
ĠL ady
k unfts
qu ate
Ġutil izing
j et
Ġst able
Ġum gesetzt
Ġsub jects
z ern
ĠKon zer
Ġpropos al
Ġup grade
w ein
ĠSchwer punkt
wend ungen
ĠhÃ¶her en
w uchs
ĠSch reiben
gesch lagen
s inn
ĠMark us
Ġbild et
Ġearn ings
ĠB ath
Ġbes tellt
op ath
An aly
ĠK ass
Ġexpl an
or et
ER E
er ie
tif icial
ĠB uff
ĠMit tag
Ġnecess arily
Ġprior ity
Ġcrow d
Ġstrength en
pl ays
Ã¶ bel
Ġab hÃ¤ngig
Ġshould n
ĠBet rag
adem ie
ĠTh ough
re f
ak i
Ã¤n ner
Ġw is
Ġk ons
ĠN O
ĠDe kor
oin ts
Ġhand y
ĠE ver
ĠBro ad
ĠÃ¶ff entliche
l Ã¶
ail and
Ġbit ten
Ġacc eler
ĠNe uer
D C
rach tet
ĠTrans fer
Ġgesch afft
ĠFran ken
ĠÃľber rasch
Ġgen auer
Ġver folgen
Ġphot ography
ĠD ipl
Ġplan en
ĠContin ue
C ommer
Ġin telligence
Ġp ic
ĠÃĦnder ung
ĠDI Y
Ġexper iment
Ġcomp liance
S eite
Ġdra wing
ĠChamp ions
00 1
Ġsti r
nde te
J e
Ġag ric
be ing
We bsite
ĠPf arr
rypt ocur
Ġup grad
ĠEcht geld
ĠTer ror
ent le
Ġrec ipes
le un
ĠTod es
ĠTr icks
yl van
ĠS tellung
ĠComm on
ĠNet flix
ĠGe fÃ¼
Ġth in
telle ct
Ġj us
Ġdem oc
we ist
Ã¶ ren
Ġbr ush
Ġhoff en
it ting
Ġtrack ing
ĠP ir
Ġch rist
Ġexpla ins
ĠSt ich
Ġsam ples
ĠWhats App
Ġpr icing
Pre vious
Ġbe ll
ĠTre ffen
Ġnied rig
Ġgel ang
Ġobj ective
âĢ ³
h otel
c ue
ĠS timmen
ĠS aar
Ġc oc
cont ent
M ax
Ġsupp lier
ĠAm t
ĠWork shop
ĠN az
ver m
Ġbesch lossen
Ġbow l
ĠNach frage
ĠS L
pl atten
Ġt ap
Ġmus ical
kon om
wend et
Ġarr ive
ĠAL L
m acht
ĠIm ages
Ġdifficult y
K osten
ĠS ide
ron ger
ief el
ĠSingap ore
st ufe
ro b
ver letz
Ġcomplic ated
Ġs etzte
ĠMe chan
Ġauf zu
Ġdr iven
ĠNorth ern
Ġe ast
Ġhistor ic
Ġverb ringen
ro ff
reib e
ĠWebs eiten
ĠNÃ¼rn berg
Ġy ard
ĠVor gehen
sch reiben
Ġtalk ed
ure au
fol ger
Ġwalk ed
ĠJ ustice
Ġmein t
Ġcommun icate
Ġins ight
Ġalong side
Kom ment
ĠVis it
Ġbisher igen
Q U
ĠKommun ikations
ĠVerbesser ung
Ġs oph
ĠGesch le
ĠschÃ¶n sten
Ġ1 30
ck te
Ġprom ise
ĠJew ish
c amp
H T
pro gram
let es
ĠHoch schule
Ġsicht bar
an en
sprech end
ĠJahrhunder ts
ĠW E
Ġad mit
z ne
Ġsuc ceed
Ġredu ziert
ĠA tem
fahr ens
ĠExper ience
Ġover whel
Ġsubstan tial
Ġset up
ĠSub st
F rank
ĠVerl ust
ĠR Ã¼
aus end
Ġquant ity
ĠD O
rÃ¤ glich
fÃ¼hr ungen
ĠV illa
T hen
Ġch ron
Ġapply ing
ch ar
Ġc erem
ct ure
ĠT ennis
Ġmus ikal
Ġsuffer ing
ĠZ entral
ĠT otal
Ġbe zahlt
/ -
Ġw elt
ĠS AP
ĠNe ur
ĠGen au
jahr es
Ġre fin
Ġunter scheiden
Ġvoll kommen
Ġcirc uit
all as
be wertungen
ĠS A
St adt
ĠHa ppy
ĠOber flÃ¤che
Ġemploy ed
Ġfind s
ĠBes ts
ĠRead ing
K ategor
aÃŁ nahmen
Ġleg s
ett y
Ġk lingt
em on
Ġst uck
teil ungen
iv a
M E
Ġn ic
ĠD SG
and el
Ġst ring
Ġbelie ves
ĠBesch reibung
olven z
Ġso bald
ile y
Ġdiv ision
Ġul timate
e id
ĠAs k
ĠKl ar
Ġblock s
Ġw esent
an ter
Ġto ler
Ġincreasing ly
ĠausdrÃ¼ck lich
Ġre chten
Ġber ichten
Ġgener ated
Ġinf ection
ĠAuss age
af r
ĠTerr asse
Ġschwer en
stÃ¤t te
Ġh ing
ĠR yan
ĠSch Ã¤den
ĠHaupt stadt
form ular
schein lichkeit
ubl isher
Ġbe mer
ĠQu art
Ġinstall iert
Ġm oral
Ġfor ever
Ġben ch
Ġtit les
Ġn arr
ĠSpiel s
F R
em ed
ĠG umm
ĠC ore
Ġer a
ĠP ause
Ġnatur ally
All es
ĠBaum w
le ep
ĠBade zimmer
Ġcorresp ond
f ur
Ġd ritte
Ġal arm
Ã¤hr ungs
ĠKar ls
or er
ĠN iveau
ĠFrÃ¼ hl
au te
ĠBundes regierung
Ġcriter ia
Ġapproach es
Ġg rie
Ġdeb ate
ĠG ift
um fang
old s
U s
Ġmem ories
ĠS ysteme
Ġst rict
Ġprodu ziert
Ġas ide
Ġmo lec
Ġdo ctors
Ġout come
Ġverbess ert
ĠSong s
Ġfand en
ĠDesign er
ĠjÃ¤hr lich
Ġm ith
ĠOr ien
ĠRe ifen
ĠQ uellen
ĠBe ide
Ġ6 3
ĠDi abetes
ĠCor onavirus
ĠGer ichts
ĠÃ¶ fter
w iesen
ĠDurch fÃ¼hrung
ĠGemein den
Ġmer ely
D uring
Ġfor est
Ġj ung
Ġdem ands
Ġcare ful
o fen
ĠF u
ĠS end
ĠschÃ¶n er
ĠSemin ar
ĠL ed
O pen
lÃ¤ sst
ĠTar if
Ġavail ability
ĠRe paratur
k und
Ġcal endar
op her
ĠAus gang
2 000
ĠTh ings
Ġpass ieren
Â ł
ĠP ict
ing t
ibil itÃ¤t
F il
r us
Sp iele
ĠFrÃ¼h jahr
M arch
a os
ro vers
ĠL ernen
ĠBeis piele
Ġse ed
om ed
ÃŁ t
ĠW alter
ĠV W
Ġ ....
Ġs tell
ĠN C
ac ious
Ġinst ant
ichte ten
cel ona
an ing
Ġf u
ĠDigital isierung
cht ung
Ġsch lÃ¤
upts Ã¤chlich
ĠH TML
Ġver geben
Ġmehr fach
ĠSchm uck
F B
h aut
ĠH essen
if ting
ĠAn im
ren ce
c omm
ĠK rÃ¤fte
ĠBer eits
Ġn ob
Ġdire cted
ĠBet reiber
Ġstatis tics
Ġenjoy ing
ĠG i
Ġschl imm
ĠM om
Ġfal se
t ung
mm a
k ers
H ave
Ġh ang
Ġcon cepts
Ġle ts
ĠE mer
Ġeng aged
ĠInstr ument
F P
Ġne utral
ĠGes ichts
Ġst ammt
ĠKind es
ĠF inal
Ġres ume
t or
ĠSenior en
zeich nete
ĠB ask
ok en
Ġfound ed
ĠTay lor
Ġdou b
ist in
Ġhe aling
ĠC oup
ĠSti ck
Ġw ave
ĠN ein
b Ã¤
Ġaccess ories
hÃ¶r igen
or fer
Ġtra g
Ġgew innt
Ġelectric ity
d ar
Ġp it
V ol
ĠmÃ¼s se
gre ifen
ul ating
Ġter rit
ĠS G
Ġfe iern
ru its
Ġlik ewise
Ġbreat h
c ia
wer ken
Ġkomp lette
M ake
Ġ7 7
Im pressum
Ġin ch
gien e
N ote
ĠSch olar
rich tet
ĠSen ate
Ġcomp osition
Ġso ut
Ġro se
Ġterm in
able d
Ġste igen
unk en
Ġpost ing
qu ote
Ġpl ane
Ġ6 8
ĠUntersuch ung
ĠBes ten
M arketing
S oll
L INE
Ġc ute
ĠSt ars
Ġcheck ing
ĠW art
ĠN orm
Ġauf gebaut
Ġpul led
k at
Ġcra ck
ag a
Ġem ails
. ;
Ġnew ly
ĠEr mitt
Ġletz t
Ġleg itim
ra cy
Ġ199 3
ĠK ent
ger ichts
ino is
ĠGren ze
Ġw ins
Ġcoun cil
S am
Ã¤ usch
ĠSp ark
Ġdise ases
AR D
ĠKal ender
los ed
ie der
ĠAl uminium
B ro
eint rÃ¤ch
Ġintegr ation
g ate
Ã¤ mm
Ġge tragen
Ġk il
ĠK ro
stÃ¼ck e
ĠBra zil
u den
Ġcertif icate
ĠJun ior
Ġat tended
Ġein st
pos ition
Ġb acter
erv ative
ĠGeb Ã¼hren
Ġ6 9
Ġrespons es
Ġeinger ichtet
g ov
Ġw om
ĠB em
ĠE ck
Ġnar row
bet rag
fÃ¤ ll
Ġn ights
ĠA gency
Ġw ra
Ġcorrect ly
U C
la h
Ne ue
ĠAbs atz
Ġk rÃ¤f
Ġle cker
) )
Ġcarry ing
Ġt ur
Ġl ists
ĠP fle
Ġal gorith
pf el
ĠHilf s
st on
Ġapplic able
ĠH aving
Ġr ising
Ġens uring
ĠB ol
Ġz og
ĠD DR
ĠVer z
tem peratur
Ġeins etzen
Ġs ight
ĠW ies
ĠD ouble
ĠVers orgung
ĠArchite ktur
al i
ĠSc reen
wind en
Ġhistor ischen
ĠC ome
Ġemp ty
Ġbox es
ĠS ource
ul ieren
kl ar
in sel
Ġst ab
Nach dem
Ġre den
ĠL uf
ĠR um
st ren
Ġbet rifft
Ġinitial ly
K ann
us al
ou red
Ġ: -)
ĠZwe ifel
spruch s
gemein de
sch ritt
Ġver Ã¤ndern
ĠA fr
Ġsecond ary
Ġauf merksam
Ġclaim ed
ĠSt amm
Ã¤r ten
Ġmaintain ing
f are
st age
Ġhas n
Ġet abl
ĠJ oin
ĠVor stellung
Ġges undheit
bo gen
ĠMittel punkt
ĠFreis piele
o ft
ĠJ ordan
Ġre ly
ĠÃ¼ber rasch
Ġsurpr ising
s ervice
ĠPreis en
Ġ199 2
Ã¼ cher
Ġges te
ĠSol id
ĠL ag
Ġst orm
ĠEr klÃ¤rung
Ġin nen
ĠIndustr ial
Ġdr in
Ġabsol v
om y
P ra
ateg ory
ĠTer ms
oles ale
ĠT abellen
od a
ĠX box
Ġrun ter
ĠUrlaub s
ungs mittel
T our
Ġoffens ichtlich
S to
ĠN u
Ġwe iss
Ã¼ bers
Ġlife time
ĠPart ie
ĠL G
ĠPh arm
iz on
Ġinvol ving
ĠSoll te
sc ribe
ĠFeed back
us es
Ġsp in
ĠY et
Ġmark ieren
A merican
Ġfocus ing
Ġman if
Ġevery where
c r
J une
ĠS orgen
Ġsal ary
ĠM inn
S CH
ov ed
Ġac ts
ogra pher
Ġfest gestellt
Ġther ap
ĠfrÃ¼ hen
form at
Ġdah in
ĠJ azz
ĠTÃ¼r kei
Ġintens iv
ĠC ut
Ġsp ark
ri ers
ĠA venue
Ġhe iÃŁen
ĠKa iser
D enn
Ġar ray
Ġstre ets
l angen
ĠB at
Ġr ice
ĠWien er
fÃ¼ll ung
k op
bl asen
Ġautomat ic
Ġor ange
t it
u ana
ĠBild schirm
ĠS K
ĠFin ally
Ġd rag
Ġf Ã¤hrt
ĠF la
Ġcons cious
Ð ²
ĠF uture
ĠVersicher ungs
spart ner
p apier
Ġmin eral
u ition
ob b
ĠO cean
Ã¶p fe
h agen
Ġtrans mission
Ġm ath
Ġbek annte
Ġhead s
fra id
Ġver standen
sen z
Ġhins ichtlich
gel Ã¶st
ra ul
ĠC ool
Ġrequ ests
Ġverb inden
ape ut
Ġan genommen
Ġab gesch
Ġcontain ing
less ly
ĠSch we
fr ist
Ġprin ted
ĠF ischer
gew inn
ĠMÃ¼n ster
Ġ: :
w Ã¼n
f oot
an ch
Ġ14 0
Ġsens itive
Ġstay ed
Ġdream s
Ġh ung
ĠJe an
h ou
Ġpl ot
Ġstatt finden
ĠMan chester
ĠPrÃ¤ sent
ic it
Ġgel angen
Ġd ollar
Ġgr at
ĠnatÃ¼r lichen
el i
Ne u
ĠKre bs
Ã¶ der
ĠKr ise
ĠSzen e
ĠOr te
Ġgesch Ã¼tzt
ĠMed ic
Ġoptim ale
ĠT rop
ĠR ud
Ġkn ock
Ch ar
use hen
Ġrecogn ition
ĠJ am
ĠSe hens
zeich nungen
ĠRess ourcen
ĠEr ic
ipp er
U K
ik at
Ġbes ucht
Ġstand en
ĠAddition ally
ĠVer teid
ĠSympt ome
ĠO ak
Ġmark s
er b
ĠG lo
Ġsy mp
Ġres ort
ĠL ohn
as ters
ut age
Ġer m
ĠGre ek
Ġk re
Ġdeutsch er
ĠM assen
ĠEin stellung
B ere
ĠSe bastian
Ġerweit ert
ĠO range
Ġsatisf action
re ff
ĠhÃ¶ch sten
stÃ¤t ten
ĠO hr
ĠMat th
ĠnatÃ¼r liche
ĠM O
Tw itter
Ġth esis
ĠH i
ĠTh read
Ġs itzt
Ġcon vey
aun a
Ġkom me
Ġsp ots
Ġdie jenigen
Ġtrans action
ĠB udd
Ġent it
kon zept
kir che
ĠS ection
ĠC irc
ĠMus kel
k Ã¶rper
ĠH ay
Ã¼r zt
ĠHaus halts
Ġbeob achten
ĠP u
Ġk rank
bereich e
Ġexcep tional
S l
ĠM ember
Ġbet rachtet
Ġl oy
B ahn
Ġm ile
or fen
Ġf ot
s wert
Ġschle chter
Ġb ab
ĠC atholic
far ben
E ff
Ġm erk
uzz le
Ġrapid ly
Ġp atch
ĠTour ismus
Ġer wer
let ten
Ġpro mpt
cl ub
Ġ9 6
Ġass et
an tic
p ump
IT Y
Ġunge fÃ¤hr
K reis
Ġa ust
Ġalle ged
ar ia
Ġfocus es
ĠSecret ary
j an
Ġbenefic ial
h ot
Ġg am
m aker
ĠNachhal tigkeit
t ons
ĠUl tra
Ġfac ulty
Ġinter action
ed In
ĠAr izona
Ġ16 0
lÃ¤ss lich
ï ¸
Ġperson ality
Ġfra ud
Ġwes halb
ĠDe al
Ġ6 2
Ġmit ge
Chr ist
lim ited
Ġassoci ation
Ġrelig ion
ĠL it
ele ct
Ġdring end
y es
Ġresp ectively
M ain
llen ce
AN T
unter richt
onn ummer
Ġers etzt
ĠschÃ¶n es
V is
Ġsc ored
Ġacqu is
re ffen
Ġk or
Ġtra cks
ĠAus sch
Ġste ckt
ĠDate ien
mp f
Ġex istence
ĠTag s
Ġersch ienen
Ġscr atch
kehr t
Ġunderst ood
Ġs til
fÃ¤ llig
Ġinteress ieren
Pro jekt
Ġdazu ge
ĠHam burger
ĠP ain
Ġinvest ments
Ġb at
ĠM ust
ĠHer kunft
stru ktion
plan ung
ĠK reativ
Ġ6 7
ĠKomp etenz
Ġbre aking
Ġcheck ed
Ġcent ers
ĠZus Ã¤tzlich
Ġle istungs
ĠHall o
Ġspann ende
Hotel s
Ġp ounds
ĠEin stieg
Ġdar gestellt
b anken
l anta
ĠKrieg s
ĠG lass
Ġsh ots
Ġser i
ĠH Ã¶ch
ĠIra q
Ġt ill
Ġbre ast
ĠRich ter
ert ation
Ġsw imming
ent ures
Ġunmittel bar
Ġo x
Ġsel ben
ylvan ia
Ġklass ische
ĠT ut
Ġex klus
pr esent
Ġbask etball
Ġind icate
ĠT ip
pro jekt
Ġany more
ĠGrie chen
ĠIr ish
Ġrepe ated
ver d
Ġrestric tions
ĠH E
ĠPersÃ¶n lichkeit
ĠLe ave
Ġgere chnet
Ġbein haltet
Ġbrill iant
Ġgesp annt
ĠVort rag
urop a
Q uelle
ĠCon f
Ġinstru ction
ĠBru der
se a
ĠSp enden
Ġch ronic
Ġo bst
Ġgel ernt
He alth
Ġk lare
Ġinter act
Ġfac es
Sh ow
Ġang esehen
F er
Ġfreund lich
rÃ¼ cke
ĠAt tra
Ġs mell
ĠB ach
ĠR s
ĠW esten
Ġtrans actions
ĠL aptop
ĠDSG VO
k redit
l ong
H in
Ġf estival
ĠS CH
Ġg ingen
Ġdi abetes
ĠHol y
ĠBe hinder
and o
Sel bst
ĠA I
ĠSp ain
stru ktur
Ġcover ing
Ġclos ing
Ġwork shop
Ġro w
Ġd ialog
Ã¤tz t
So ftware
abil itÃ¤t
roff ene
ĠA ge
. Â»
b il
ĠSp ann
ter ne
U ST
Ġg ate
ti als
app y
lass e
ph ia
is ms
ĠL ok
Ġexp osed
ĠSw iss
ĠOn lin
ustr ia
ar o
B is
ĠAsp ekte
v gl
Ġinter pre
Ġh its
ĠberÃ¼cks ichtigt
T er
ock er
Ġverste ht
Ġges prochen
ĠBu ild
bÃ¼ cher
v it
ĠIde al
ĠNiger ia
w p
ĠR ank
ĠAus bildungs
elt a
ĠG ramm
ĠBet roffen
be hÃ¶rde
Ġ9 8
b ot
ĠRegion en
Ġtempl ate
Ġclass room
le kt
ing o
ĠF ix
Ġange passt
ĠGew erbe
ĠBe ck
ĠMerk el
Unter nehmen
Ġpr ime
Ġbek am
Ġsich ere
Ġocc urs
Ġneigh b
Ġvis ible
ĠV irus
iz abeth
ĠMon ats
Ġange kÃ¼nd
Ġprin ting
, ...
ĠAt lan
Ġdrink ing
Ġerreich bar
Ġer rors
Produ kt
D ass
d ney
ĠM aschine
Ġst range
Ġst ronger
ĠPra ktik
im s
tiven ess
es a
Ġer hoben
Ġinv ited
Te il
ordnet en
brit ann
Ã¤ tigung
Ġoft mals
ĠC oin
ĠV ari
Ġdeutsch land
Ġfas zin
ian ces
Ġaward ed
ĠS icher
B B
Ġg gf
ĠWettbewer b
ĠSh opping
Ġun us
ĠzurÃ¼ck ge
Ġa fraid
Ġspe zif
Ġ9 7
ĠLog o
Ġinstall ieren
ĠlÃ¶ schen
Ġg ender
sch lieÃŁen
Ġwe ib
ĠLauf zeit
Wor ld
Ġt one
Ste p
Mich ael
bo ards
ĠTor onto
ĠUrs ache
um me
Ġger aten
ĠM aus
Ġcont est
burg h
Ġdeta ill
ĠPro perty
ad ed
ĠD ialog
Ġge lingt
Ġdist inct
id o
Ġp ace
ol y
vors itz
Ġgreat ly
Ġh Ã¶rt
Ġverschieden er
Ġgew isse
Ġequ ivalent
ĠK am
ur i
ĠR al
ĠErn st
ĠB lau
ĠApplic ation
ĠAns icht
Ġt um
aus en
ĠAl b
p la
Ġcomp uters
ĠÃĸ k
B ank
C P
Ġgraph ics
tipp s
O rig
A ir
Ġn ennt
Ġref und
m i
ĠBuch st
ch ise
ows ki
ule tte
Ġbeant worten
Ġfind ings
Ġlang uages
Ġk enne
ĠN Ã¤ch
Ġro y
Ġbro ker
Ġtransp arent
Ġtw enty
Oct ober
ĠE gal
Ġtravel ing
Ġliter ally
de ckt
urr ently
Ġharm on
ĠTra il
leit ungen
Ġpack ages
ĠZwe cke
Ġoccur red
leg te
Ġgain ed
Ġaccount ing
um an
Ġver Ã¶ffentlich
im men
Ġfrequ ency
ĠP ad
Ġhochwer tigen
bour ne
Ġop ens
los igkeit
Ġm ixture
Ġdies mal
ĠDie go
ĠSchm idt
k rit
Ġum ge
Ġvers us
Ġth erm
Ġ198 9
Wh o
ie ties
Deutsch land
ĠBro t
Ġprot ocol
verl ust
ter e
200 4
Ġm ood
Ġwh ilst
ĠPol en
ĠT rib
Ġge arbeitet
ĠGrund lagen
ĠBe ob
ĠTr ink
stÃ¤nd ig
ĠRisik en
ĠðŁĺ ī
ĠgenÃ¼ gend
gl as
Ġge fe
Ġfor ex
Ġgew issen
com fort
w alk
Ã¶ mm
ĠN ear
ĠJ r
Ġw al
ĠAn sprech
ĠKon kurrenz
ĠB ush
Ġwonder ing
m il
ĠY OU
Ġact ing
qu enz
us ions
Ġgebra ucht
sie ht
Ġc am
ĠPreis vergleich
ĠGeh irn
Ġlicens ed
beg inn
ĠL ust
K n
Ġb att
fe uer
Ġhier fÃ¼r
osp itals
ie hlt
st s
Ġb orrow
st yle
ĠJ us
Be fore
g Ã¼ns
Ġb ot
Ġredu zieren
Ġch ines
Ġ }
Ġlarge ly
Ġcompens ation
Ġdevelop er
adel phia
ur ities
p ay
ĠT es
ahr t
Ġsens or
ĠFern sehen
ra hmen
ĠN ob
ĠQu ar
ru kturen
ĠL aser
Ã¼t te
ĠImp ro
deck ung
T wo
ĠG PS
ur ope
ĠEle mente
ĠDel uxe
T ime
ĠZ Ã¤
aus ende
Ġrich tet
Ġpack aging
ĠGast geber
Pro gramm
Ġprepar ing
ĠWith out
Ġbege g
Ġdra uÃŁen
Ġzw Ã¶lf
Ġresp ective
Ġpro c
Ġpublic ation
Ġbeteil igt
Ġle ichte
ĠInd ones
Ġorgan isation
Ġcomp ress
ĠK y
Sch lag
Ġ19 60
X L
we be
ĠArch ives
h our
Ġbe zÃ¼glich
S il
ĠIn frastruktur
ĠMon th
ĠT un
ĠKap itel
ĠMo on
ic ted
Ġevent uell
ĠPolit iker
Ġmaintain ed
Ġtiss ue
ĠRe lease
Sch w
Ġgel Ã¶
Ġzuf olge
pr iv
Ġnormal erweise
ĠPort al
ĠG lÃ¤
Ġauf nehmen
aler ie
Ġme ets
Ġl Ã¤dt
Ġwe ich
Ch ina
Ġb elt
ĠC ab
Ġbes timmen
ss ystem
Ġunc ertain
ĠH Ã¤user
Ġha uptsÃ¤chlich
f ted
ĠE ch
Ad visor
Ġequ ity
Ġrequ ested
Ġspann end
Ġfl ower
Ġperson nel
ï¸ ı
ĠSe lect
Ġcomb ine
at ile
Ġsch icken
ol and
ĠBr idge
I ER
a ired
Ġg ib
iel ten
ĠUnter schiede
ĠOl iver
k asse
ĠOb jekt
N etz
ĠBes itz
ĠHol iday
s or
Ġres idence
Ġwunder bar
emit teilung
ĠS au
ĠUm stÃ¤nden
I EL
app ed
Ġvor bereitet
Ġh ielt
ĠProte ction
ĠW ould
Ġs auce
b aus
Ġin tend
ier er
He y
Ġjoin ing
W ohn
ron ik
Ġconven tional
Ġ199 1
ĠGar antie
Ġg orgeous
ĠC afÃ©
ie ber
Ġless on
Ġfunction ality
ĠAn satz
Ġul tra
amp s
sch Ã¤d
ĠAk ku
Ġa wards
Ġev olution
Ġent ering
Ġinter active
Ã¼hr t
Aut or
ĠBewer bung
Ġto oth
Ġab stra
enn ess
M M
erstell ung
Ã¤ch s
âĢ Ĥ
ĠN AS
Ġir re
Ġlau tet
l Ã¶sen
ĠD ress
onn ect
jek tiv
ĠMont age
Ġh iring
sch m
Ġerfolg reichen
iv ity
Ġr ush
Ġfl our
ĠEurop as
Ġfall ing
M edia
Ġflex ibility
Ġhar der
Ġlay out
ĠBests eller
b auer
id et
od urch
af ter
is ers
ĠLand schaft
Ġeinz igen
h ai
Pe ople
ĠC her
ĠSt att
N och
ol er
Ġqu asi
ĠStar tseite
Ġsudden ly
ĠW urz
Ġl ady
ĠLoc ation
gesch oss
Ġw usste
h h
ab a
Ġe uro
Ġf its
tig ungs
Rel ated
Ju ly
ĠF ile
Ġinvest ing
gew iesen
ĠInnen stadt
Ġl ift
ĠBezir ks
N atÃ¼rlich
Ġan ste
wach ung
em ail
al ia
Ġ8 8
r n
end ent
Ġn ix
Ġbe half
ein stellungen
ĠH orn
ĠFre md
id as
Ġver f
ĠBe ing
Ġgenu ine
Ġerfolg reiche
ĠHo uston
Dec ember
s ylvania
ox id
Ġehr lich
ĠFor est
Ġbook ing
d ays
Ġhop es
w ischen
ĠD ritt
Ġc ult
ĠSch atten
ow a
ĠGro ÃŁe
u is
ĠBet racht
Ġdeliver ing
ĠEn gel
Ġ6 1
ĠMar g
ĠM ang
Ġal ive
Ġange messen
Ñ ĥ
et tel
ĠV el
ĠCor porate
ĠSign al
Ġevery body
ĠSup reme
Ġmit ten
Ġsyn th
ĠB ass
ĠEr ste
Ġprof essor
Ġst ages
hÃ¶r er
Ġent rance
reg on
Â« ,
Ġbess eren
Ġverhinder t
ĠS auer
r Ã¤t
ap h
ĠMag ic
Ġord entlich
Ġo ven
Ġstr ike
hand elt
om me
teil s
ĠZut aten
M L
n ur
ĠÂ °
ĠIn tel
Ġflo od
Ġscient ists
Ġbes tens
ĠAl lein
Ġsc rew
wÃ¼rd igkeiten
ĠE cke
Ġsc ope
Ġdrink s
O k
Ġg ap
amer ikan
ĠG renz
ĠRep ublik
osme tik
Ġessen tially
Ġdisplay ed
ĠColumb ia
Es sen
L ife
Ġt ons
neh in
ĠV alent
ĠDies el
Ġf ern
Ġn either
ĠL ic
ĠC reative
Ġrefr esh
ch ern
m ein
Ġin itiative
im ensions
Ġt alen
ĠM ischung
Ġentsp rechen
an th
Ġdec ent
nehm ung
ĠJub il
Ġag greg
ĠS AT
Ġnavig ation
Ġver teilt
ĠT X
um a
bÃ¼ ro
d isc
m Ã¤r
Ã ±
ĠAkt uelle
in ity
ĠSp ons
utz utage
Ġremain ed
Ġopp on
inu ier
Ġstud ying
rodu ction
Ġha us
ĠStep hen
ĠSchwang erschaft
G ar
Ġer Ã¶ff
ĠLe gal
ĠKl ang
ĠBe wohner
up e
ĠProz esse
ĠBar celona
Weiter lesen
ĠV PN
Ġcontain ed
Ġs timmen
Ġcan cel
ĠCl ark
ĠKont akte
o ir
Ġwant ing
Ġerz Ã¤hlen
Le ave
ĠL if
Ġend g
rie ved
r ien
Ġn om
ĠF it
ĠH abe
ĠUn c
far be
Ġj un
Ġwatch ed
00 00
ad i
Ġim per
ip fel
mb ole
Ġbank ing
Ġrepresent ative
ĠVerkauf s
ĠKonz ern
Ġj ahre
Ġherunter laden
ver hÃ¤ltnis
Ġun kom
ĠHaus halt
ĠN av
Ġs timm
ĠWerk zeug
Ġqu er
ĠDesign s
Ġdump ster
ĠgewÃ¤hrle isten
in cluding
Ġt all
ĠP andemie
E nerg
ĠSp ur
ĠRes erv
ĠSy dney
ic ip
ĠF res
ĠDem okratie
ĠIns olvenz
h ten
Ġk Ã¤mpfen
aus schuss
r ichts
Ġsich eren
Ġform ula
ĠE mb
sche ch
Ġ ]
rÃ¤ der
un ters
Ġbet rieben
Ġpra ct
ĠVerfÃ¼ g
l Ã¶s
ap el
Ġgeb lieben
ĠMr s
Ġeffiz ient
on i
ĠE astern
hÃ¤lt nisse
S en
ĠHÃ¶ hen
K T
Ġf old
ast ing
ĠJava Script
ĠA mer
Ġdam al
B ra
m akers
ĠSch uh
âĢ¦ âĢ¦
ĠV f
Ġend ing
Ġzunehm end
Ġ7 6
tag on
Ġo cean
ĠBrit ain
ĠBestand teil
ĠF akten
leist ungs
Ġtut orial
ĠBerat ungs
Ġer fahr
P T
Ġd ent
Ã¤ ppchen
Ġnoch mals
Ġb unch
Ġd ipl
ĠO m
Ġ ere
ĠMin istry
ĠWider ruf
K omp
ĠM oh
ĠMehr heit
th ur
ĠUn i
Ġschne llen
Ġeindeu tig
ĠP ier
ĠC orn
Ġgot ten
t yp
ce ived
Ġerst aun
Ġd ont
ate ful
Ġ \
den tif
f ried
ĠR ost
ac on
ĠWe ight
ĠCh apter
ĠLux us
Ġaktual isiert
z ens
Ġj apan
Ġex ecu
ĠWer ke
Ġh orm
Ġg iant
ĠT Ã¤ter
Ġl ake
Ġphen omen
Ġtr ips
ĠAbs ol
ĠM other
Ġirgend wo
Ġegg s
rol og
Ġdar stellen
n amen
Ġt ube
Ġimpro vements
re tt
le m
Ġpro por
AG E
mon th
b ul
Ġse id
Ġcolle agues
ĠEr schein
Ġshe ll
ĠWer den
h me
Ġmed ication
Ġdam aged
Ġopp osed
Ġhol idays
ĠCre ek
Ġa er
um ing
ĠGew inner
Ġdra wn
ĠkÃ¼mmer n
Ġgu ilt
i our
ĠM athemat
ĠAll gemeinen
Ġvis its
Ġvirt ually
ĠUn fortunately
Ġ; )
ĠE hr
s itz
un Ã¤chst
qu elle
Ġwer en
ĠKon zentr
ĠRegistr ierung
ĠerlÃ¤ ut
Ġscreen ing
ti ftung
ĠR athaus
fin anz
ĠTrotz dem
u its
D ay
ĠW iders
Ġver mitteln
Ġbl end
ail ing
he ll
ĠJ ungs
âĨ Ĳ
atell ite
Ġbro ke
ĠInf ek
Ġbeste henden
r isik
Ġaus einander
Ġar res
ĠAnd ere
Ġsc reens
ĠÃľb ersch
ĠF utter
Ġge pfle
Ġad m
ric ulum
Ġfac ed
ĠL ess
Ġun ion
ĠK rie
ĠA llen
ĠE V
ĠSie ger
ĠBe ziehungen
ĠStÃ¤d ten
ĠCann abis
ĠIn tens
Ġhier zu
he ast
Ã¤hl er
Ġ( @
Ġeng ines
Ġin her
ĠEx cel
z enten
Ġh am
Ġg al
Ġste am
ĠRel ations
c at
re ts
Pub lished
m end
ĠS ituationen
w ed
ĠTh ailand
ĠEd itor
UN D
Ġdire kten
Ġacqu ired
le ute
ĠI C
Ġbr ut
Ġroad s
ĠÃ¶ k
Ġwas hing
min ute
ĠBesch luss
Ġper mission
ĠFl uss
Ġsh arp
rol led
ah oo
Ġt we
Ġp in
ĠF uss
ays ia
Ġhund ert
ĠVictor ia
ĠPart n
Ġwe ist
ĠRein igung
ĠBe weis
Ġcal c
Ġb ills
Ġcomp lim
Ġtarge ted
ĠKl ick
de te
ĠMem bers
Ġwarrant y
Ġhervorrag end
Ġhead ing
Ġev il
Ġrech tzeit
ĠB arn
ĠCh rome
Ġmoment an
organ isation
ĠMil itÃ¤r
ĠP interest
ĠFinanz ierung
ĠN ature
d re
Ġgen erell
1 000
Ġconsequ ences
M ont
Lie be
u ous
Ġv ill
Ġl ens
st ore
ĠMar ine
Ġton ight
ĠZ ivil
er er
ĠP ear
ĠK uchen
g ten
ĠB rian
ĠKinder garten
Ġevalu ate
Ġsp ont
g ab
Ġdur fte
ik ationen
hÃ¶ hung
Che f
M art
Ġr ural
agra ph
ĠursprÃ¼n glich
a o
ĠG ep
ĠSch al
ĠS R
sel ben
Ġeingel aden
Ġmuse um
Ġl atter
lich ten
ungsm Ã¶glichkeiten
Ġsur ve
zen e
Ġstock s
ĠPfer de
olog isch
I Z
ĠG h
yl on
ĠM ajor
ĠGegen teil
Ġexam ine
P ay
Ġequ ally
R o
ĠCon struction
ĠEnt fernung
Ġattend ing
Ġw odurch
Ġse es
ĠC ivil
Ġausgew Ã¤hlt
Ġerwer ben
ĠT icket
ĠW Ã¶rter
ĠL ange
I X
Ġf lying
Ġign or
Ġst ations
ĠZe ug
Ġwar ning
Ġfasc in
Ġstrong ly
Ġsatisf ied
ĠF ests
Ġtr usted
ĠN ah
Ġsm oke
it as
Ġrec re
fin ale
port al
Ġc ement
Ġspiel te
ĠOrig in
Ġbran ch
Bu y
ĠGÃ¤ sten
D abei
ĠIll inois
us er
ĠRe form
Ġn omin
ord ination
ĠUnter richt
k ern
re ement
z esse
ĠTab elle
Ġweap ons
ram a
st all
Ġro ulette
Ġb oss
ĠSor timent
ĠUnivers al
Ġassign ed
wechs lungs
ĠEn joy
Ġpromo tion
ĠEntwick ler
Ġreve al
ĠAC T
ĠBeweg ungs
Ġt ired
an spruch
kÃ¼nf te
ĠM asse
Ġvers ehen
ien e
load s
ĠNieders achsen
Ġst olz
Ġaccur acy
d og
ĠB ud
ĠM ath
ĠBe at
ĠMov ie
? âĢĿ
Ġde pression
Ġaddress es
Ġass embly
s etzung
ĠJack pot
ach ed
ĠAr zne
Ġdef ine
ĠL ack
ĠAdv anced
Ġbelie f
Ġcut s
Ġaccord ance
G R
G old
Ġdeb ut
M C
ĠW ag
tw agen
ĠD oug
U l
Ġfre m
Ġtourn ament
Ġun known
ĠNutz ungs
gere chnet
Ġt ags
k ette
ump f
oen ix
ĠR A
Ã¶r d
Ġcontain er
de cke
Ġteil nehmen
Ġaim s
Ġprov ision
Ġdecre ase
ĠGel Ã¤nde
Ġconcl usion
inst all
Ġbe endet
ĠPro p
ĠgeprÃ¼ ft
V ert
i ology
Ġbo ot
es ota
ĠB C
Ġein stellen
ab schluss
zahl ungs
ĠVerÃ¶ffentlich ung
Ġl aid
Ġaccommod ation
ĠErinner ung
B rand
b in
R est
ĠFe ier
erv ices
Ġtempor ary
Ġger inger
Ġher o
qu ick
ĠDav is
ĠCour se
Ġf ib
Ġp ocket
Ġins ights
Ġweiter lesen
Ã¤uf e
g i
ĠWor ten
ant rag
ĠVerk Ã¤ufer
ĠH ind
Ġun exp
ĠEmpfehl ungen
Ġin vention
ĠLe idenschaft
Ġdurch fÃ¼hren
ĠI L
sp ekt
ĠEin wohner
Ġcontinu ous
ĠB uck
Ġorgan isiert
umb ing
ti que
v ens
Ġvor auss
Ġcertif ication
f as
ĠM s
ĠZ war
ĠGemein schaft
Ġspe aker
Ġbewer tet
fle isch
Ġverurs acht
En tw
britann ien
Ġle iden
Ġdes ktop
ĠMus iker
ĠEv angel
Aut hor
Ġnotwend igen
Ġ12 5
Ġmein te
ĠtÃ¤ glichen
ĠTelef onnummer
Ġempf iehlt
Ġs ought
Ġrec on
ï¿½ ï¿½
ĠGra ph
P DF
Ġreturn ing
An bieter
Ġeng aging
Ġm ic
ĠVer pflicht
ĠFl Ã¤chen
D igital
U se
ere ien
Ġlegis l
Ġbird s
Ġan spruchs
Ġimplemen ted
ĠK enntnis
Ġ7 8
Ġdivers ity
ĠG Ã¶t
! .
ĠK as
ĠSta ub
ĠAuss icht
EN D
ĠMill er
ĠM essen
ĠD usche
Ġod ds
Ġwe igh
Ġnachhal tig
Ġput s
Ġpan els
Ġf erner
ĠD uft
ĠgÃ¼ns tigen
Ġw achsen
Ġn ord
Ġv oc
f Ã¶r
st op
erk ennung
Ġopin ions
Ġdish es
k unst
ĠErwart ungen
n ormal
Ph oto
K ey
ĠV illage
Ġrec ip
ĠRepublic an
Ġl in
Ġsk illed
Ġkont aktieren
Ġehemal ige
ĠR us
Ġman chen
play er
c our
Ġmist ake
ĠB art
Ġco aching
ĠWahr scheinlichkeit
ĠEing ang
S H
ĠS in
Ġbe ziehen
Ġde fic
ĠwÃ¼r d
Ġdank e
Ġadop ted
Ġf ried
ĠC T
Ser ie
Ġb ay
Ġein ver
Ã¼r ze
ti a
Ġveget ables
Ã¤mp ft
ĠF as
Ġyour s
Ġemo tions
ĠFl Ã¤che
ĠVirt ual
s w
f unction
Ġange kommen
AC T
Ġind ire
te le
Ġdown town
Ġgran ted
Ġad missions
ĠChallen ge
N ational
Ġn ett
les wig
Ġimmer hin
Ġgest artet
Ġlow est
ĠSing les
J ahr
ĠS Ã¤nger
Ġ- >
ĠRÃ¤ ume
f Ã¤ng
ach ter
ĠSch lieÃŁlich
ĠInd ep
Ġreag ieren
ĠO ster
S K
ian ts
Ġ7 4
er als
unn el
Jan uary
Ġcas ual
Ġbewer ten
ol s
Ġlie f
ichtig keit
ĠMad rid
Ġgrund leg
k rÃ¤f
Ġwork place
de fin
Ġbo ards
Ġparticip ation
ĠH obby
ĠFe ature
Ġbed arf
z iger
Ġloss es
Ġposit iven
ĠR ound
Ġab sen
ĠOn t
Ġair craft
Ġbe ur
Ã¼ck e
Ġab ilities
jÃ¤hr iger
ĠSÃ¼ den
ĠM ahl
ĠP ot
ors hip
ad ern
1 20
Ġco pper
ĠRes ult
ĠMie ter
ĠJ osh
Ġunter sch
tz t
ĠQuad rat
Ġm ild
Ġrel ation
ĠJun ge
ĠE i
af el
fahr ten
7 00
ĠK ohl
ĠTh ink
ob ility
ĠSte uern
Ġreach ing
ĠA part
ĠÃ¼ br
Ġwenig stens
Ġha z
s icht
Ġlink en
b ig
ĠP ink
ĠF igur
ow ers
Ġthous and
ren zt
Ġemploy ers
el led
ĠApp ro
Ġgre ifen
ĠWil son
fÃ¶rder ung
r ates
D ollar
ĠAn hÃ¤nger
ĠLog istik
âĢ º
Ġhe il
ĠAuss agen
off s
Ġintrodu ce
Ġst ability
ĠSte phan
ĠBr as
ronom ie
n i
ĺ ħ
ent in
Ġide ale
ĠNe uk
Ġatt itude
Ġmechan ical
est ra
Ġthreat en
] [
es p
for ward
ĠS ave
ĠF inden
L ook
ĠP red
Ġverl Ã¤ng
ĠRou te
ĠO sten
ĠPro gn
ĠCh annel
Ġind icated
ĠEin t
app ro
ĠMÃ¼ ll
Ġge g
ĠF red
ĠR ome
Pl an
ĠG un
ĠArbeit splatz
Ġcontra cts
Ġguarante ed
ĠAssist ant
ĠReal itÃ¤t
Ã ¢
Ġin tellect
ĠH air
Ġge liefert
Ġassist ant
ĠSup erm
th en
os ion
tw ork
erm ine
stechn ik
Ġsent ence
ĠEnter prise
Ġv otes
ĠUrs achen
ĠS ammlung
Ġrec ruit
Ġbe mÃ¼
Ġst ood
Ġobj ectives
Ġprofession elle
Ġbewe gt
m arket
Ġor al
ious ly
ĠBro ker
Pl us
Ġt ier
isch of
ĠergÃ¤n zt
Ġre ti
ĠwÃ¼n sche
ĠAn liegen
Ġad mission
Ġencour aged
Ġt ape
b aden
d on
Ġt Ã¼rk
ĠRep air
" ).
Ġflu id
ĠR ail
famil ien
ĠV A
g ame
Ġra cing
ĠAs yl
rich ter
ĠFl Ã¼ss
Ġkont inuier
ĠE tw
ĠMag azin
Ġcampaign s
is p
Ġt reiben
ĠSch u
ĠWir klich
ne tic
U E
Ġm u
ĠG allery
Ġ( $
Ġlok alen
Ġmir ror
Ġin tention
ĠIS BN
ĠCy ber
O ST
ĠW arm
ĠHand eln
Ġemploy er
ĠEff ekt
Ġoffiz iell
ĠO ft
sp iegel
gel aden
Ġleb end
ĠGem einsam
Ġf illing
Ġl oud
Ġunters ucht
Ġansch auen
K at
b ase
ĠKat ze
f ire
ĠNach teile
Ġh es
ĠfrÃ¼her en
. /
h igh
ĠPod cast
Ġ8 9
ĠFin ale
sch le
k tions
Ġ ï
B it
Ġanaly ze
Ġden kt
ors es
ersch af
ĠJ ur
ol n
Ġsow as
ĠspÃ¤t estens
Ġh em
Ġreg ards
ĠPrÃ¼f ungs
ĠT ree
ĠEn s
ĠViel en
f lo
Ġs ed
Ġsem i
L Y
ĠstÃ¤r k
ĠGirl s
om er
ĠS ug
Ġtra ur
ograph ie
ĠF ly
men ities
Ġattra ct
Ġconvers ion
zub auen
ĠErwachsen en
Ġacc um
Ġk enn
Ã¤us cht
ĠAl pen
Ġprom oting
we ek
ĠBl att
ĠEvery thing
R et
ĠL ay
ver tra
Ġsub sid
Ġch ips
Ġtro p
K ar
Ġse asons
Ġopp osition
Ġbed s
Ġan alog
Ġnach voll
ĠL isa
ĠErg Ã¤nz
T B
Ã³ n
B uch
Ġs ummary
Ġprincip le
atur al
ĠMar s
Ġju ice
Ġse eds
ĠF ather
Ġse gment
Ġexam ination
ĠDub ai
Ġc ryptocur
ĠgÃ¼ns tige
Ġunbe quem
Ġan t
Ġbo iler
Ġfulf ill
Ġfests tellen
P ower
ĠG ive
Ġr ender
ent h
ĠKir ch
ĠG ur
Ġtra dem
in ian
Ã¶ ger
on te
ĠBar bara
ĠAt om
ch ild
an es
ĠAb schnitt
bre ak
Ġerk annt
Ġdemonstr ate
ĠSpiel ern
Ġverl iert
ĠB ike
Ġj etz
Ġrel ating
ĠB och
ĠT ony
ace u
Ġdur able
ĠHaus es
ĠRem ember
ĠgewÃ¼n schten
it ate
ĠJ ay
ĠVers icherung
Sm art
p ur
Ġverb oten
Ġl at
Ġb one
Ġbetroffen en
ĠZ y
par te
ĠFreib urg
d ated
Ġcor onavirus
ing ham
Ġtarge ts
P E
Ġfarm ers
W atch
ar ische
Ġinvent ory
Ġde eper
Ġes timate
Ġpe ak
Ġamong st
ĠE S
ĠAfghan istan
ĠB ein
ĠT ruck
fil ter
Ġdauer haft
Ġab geb
ĠHand lungs
ĠAngeb oten
Ġr ated
fe ier
ĠAn pass
ĠArch ive
Ġstrugg ling
ĠHaw ai
Ġsow ieso
Ġdep loy
Ġen forcement
ĠO regon
Ġqu ar
Ġexperien cing
Ġserv ers
z ustand
ĠTra ck
al ition
Ġsch ein
Ġdra in
ĠGleich zeitig
ĠLew is
P res
ĠH op
ĠPark platz
L o
ĠSk i
f al
ĠN ap
ĠberÃ¼cks ichtigen
wohn ungen
P oint
Ġstud ied
Ġoh nehin
Ġver mittelt
Ġmist akes
Ġsome body
ĠMen Ã¼
Ġbetre ff
ĠÃľb ungen
Ġsch lagen
mitglie der
ĠK h
ĠK ond
Ġsp a
ĠÃ¼ber w
ĠRat geber
ir urg
ĠSch rif
ĠRe zepte
Z us
ĠBesch werde
st he
ĠDat um
he alth
Ġle it
Ġoffiz iellen
Ġaktiv ieren
aus wahl
ĠKon sequ
Ġcal m
Ġw Ã¤chst
ĠZ auber
ĠmÃ¼s sten
Ġeffek tiv
jack e
ĠDes ktop
ĠC it
ĠK ul
Ġconven ience
ĠbeschÃ¤f tigen
gebÃ¤ ude
ĠMe et
ĠSchÃ¼ler innen
Ġsm oking
ĠG E
ĠFlÃ¼cht linge
Commer ce
b oy
ĠG anze
pp ich
lie hen
ĠBewer b
Ġp c
ĠAnd ers
and ra
ĠV R
Ġvacc ine
H ello
g arn
Ġbe aring
ĠÃĦ hn
ĠTh Ã¼r
ĠI l
auf t
ĠMass age
Ġsmart phone
ĠE c
P eter
i y
Ġex ists
ĠAt lanta
Ġfl ights
bild ungen
ok ed
ĠS MS
ĠPro blemen
ĠG DP
ĠAkt ie
ĠAnn ual
om o
ĠAn fÃ¤nger
ĠVorauss etzung
Ġan sonsten
ĠWork ing
ĠAg entur
Ġzentr ale
M icro
Ġklein ere
ĠFunk tions
ĠIde as
Ġcat alog
l isten
m ind
ĠJ Ã¼rgen
ĠDes pite
ĠverstÃ¤r kt
B ecause
an teil
ĠLe x
Ġtr inken
tif ied
Ġm Ã¶gen
Ġn ations
ĠH ir
Ġzeich net
ĠÃ¼ber legen
ĠEmp loy
ĠPenn sylvania
Ġw ake
ic ide
ph ase
ang ers
Ġeig nen
Ġsh oulder
ĠM alt
ĠSchw ester
ĠFÃ¤h igkeit
i ary
Ġc ameras
Ġlay ers
n acht
Ġpow ers
ĠSte ck
ĠN ad
Ġwichtig ste
other apie
Ġbe au
ĠH arm
St ation
ĠMet rop
b ranche
Ġvor genommen
Ġtele phone
g ert
K eine
Ġens ures
pack t
ĠausfÃ¼hr lich
C le
Ġesc ape
v ity
th rough
Ġmass age
ĠT ai
ass ung
ĠSu ite
ĠPr inz
an while
ĠP ath
ĠH altung
Ġchild hood
Und er
ĠKart off
ĠB eine
Ġs ink
Ġverb ra
Ġrepr esented
A v
sequ ently
ras cht
Ġsubsc ription
ie wer
ĠUn it
ĠEx ce
ĠMedik amente
c ore
Ġan passen
Ġschw ere
Ġmitt l
Ġmechan ism
Ġspeak ers
stÃ¤r ke
Ã¶ ten
ub ble
it ur
Ġsign als
Ġpurch ases
T ake
W ert
i hn
T or
Ä ģ
Ġz entral
ĠC ancer
ĠAn leger
ĠVerÃ¤nder ung
ĠPl anning
U I
g iving
eth eless
Ġcontrib ution
ĠEntwick lungen
ĠM ale
ĠK aufen
ĠUr ban
m acher
Ġd il
P aul
ĠV intage
Ġst ro
Ġsur g
estiv als
Ġdeep ly
Ġthem es
Ġ7 9
Ġcelebr ation
F OR
ĠPlas tik
ĠL isten
ĠSp l
ĠEmpfehl ung
Er st
Ġpoin ted
r ated
Ġf t
ĠAv ailable
d el
ĠB attle
ĠF ace
ĠD ritte
ĠD allas
Ġumfang reich
Ġerw orben
ĠPhil adelphia
Ġinj ured
Ġsorg fÃ¤l
Ġan ger
Ġge is
Ġsie he
st Ã¤d
ĠV ice
Ġp ip
sta aten
Ġeinzig artige
it ative
D avid
ĠT ester
ĠSl ow
aut en
Ġwhere as
Ġkomp et
Ġarr ival
sh ow
IC K
ok oll
ap or
ĠAP I
Ġh osted
ĠN ase
Ġlov ing
ĠOper ation
. Â«
schaf ter
ĠW H
Ġdire ctions
ĠL yn
ick el
ĠVor lage
Ġpra yer
Ġpred ict
Ġk alt
ver arbeitung
wick lung
ĠBrand enburg
ĠS ant
ĠSchul ter
ĠRett ungs
zeit ung
ĠW erner
Ġeinz us
Ġsp ray
Ġcerem ony
ĠL atin
Ġle er
ĠAkt ual
c am
Ġdunk el
Ġh Ã¶r
ĠF urn
lic kt
ĠGetrÃ¤n ke
S w
S an
S ing
ate ur
Ġdeal er
Ġgeb oten
em ann
ĠK iel
ĠAus bau
ĠZw eit
m ax
ĠInst itu
Ġelect ro
Ġbesch reibt
Ġstain less
ĠAnsprech partner
ĠM ort
Ġperiod s
ĠMet ern
entscheid ung
Ġentit led
ĠK ok
ĠL arge
Ġoff ene
Ġbe arbeiten
ol as
Ġbevor zug
ĠH ills
ĠGr unde
Ġform ation
for mer
Ġausprob ieren
Ġge fahren
Ġber uh
ĠCons ider
ĠEr stellung
Mod ell
on ing
ĠEin heit
Ġd ok
Ġemp find
Febru ary
Ã¤ss ig
Ġassign ment
f ly
Ã¼ ge
ĠH old
Ġinvol ve
ĠWed ding
men ge
ĠMar ie
N ein
w riter
ib l
Ġindic ates
ĠC ow
ĠH Ã¤
els on
G rÃ¼
ĠD einen
Ġbeg leiten
Ġconc ert
S chn
ĠSe attle
ĠBesch werden
ĠVert rieb
Ã¼ te
ĠSehens wÃ¼rdigkeiten
P ark
besch reibung
ĠSp annung
Ġvor n
Ġdel ight
Ġappar ently
Ġw achs
Ġrep airs
Ġpra y
ank a
ĠPre m
l ooking
ĠPer fect
ĠS ich
Ġsh irt
Ġentscheid et
Ġg entle
ĠD S
ĠSt urm
anc ement
Ġb omb
Ġconf ig
ĠHe idel
b und
, '
ĠT rÃ¤
Ġport able
Part ner
Ġy oga
C r
K urz
ac ed
ĠErk enntnis
S ol
ize i
Ġpriv ile
ĠDel hi
ĠB BC
I ES
Ġhome work
ĠM uss
Angeb ote
Ġstream ing
Ġjen er
Ġutil ity
Le ist
ĠJ agd
ĠLin ien
ĠIn gen
Ġsol o
ĠD icken
n itz
Ġsequ ence
R T
ĠD un
ĠSt orage
Ġz it
Ġbeg rÃ¼nd
umm y
ĠstÃ¤r ken
Ġrub ber
Ġphilosoph y
Ġhead ed
Ġdivers en
V B
Ġand ern
Ġver ring
Ġreg ulation
ĠSc iences
Ġunglaub lich
ĠPer haps
M al
ĠÃ¤hn liche
Ġdivid ed
g ain
Ġwor ried
Ġmod ule
ĠJ ak
ult ane
Ġd ose
ĠA y
Ġtemper atures
Ġexhib ition
Ġerk ennt
Ġproduc tivity
ĠC hen
ĠEinkauf s
ĠRe cher
Ġregul atory
Ġdescrib es
ĠAn ruf
Ġintegr iert
ĠGrÃ¼ ÃŁe
Ġelimin ate
ir k
ĠAr gent
ĠWohn ungs
ĠB ry
ĠRes erve
Ġmach ten
Ġpr ide
ĠSe le
Ġengine ers
othe ken
ĠK elly
ial s
ĠH ass
ring e
Ġvar iable
ĠMit t
á Ĳ
lÃ¤ ufe
A lex
geb ra
ĠD ance
Ġco at
Ġaff iliate
ĠS ix
Ġv ice
Gen eral
ĠSmart phones
r ent
de p
ĠEl izabeth
Ġaff ili
Ġed iting
bo ot
Ġarm y
C as
L P
versch luss
ess ert
Ġdesign ers
Ġbesonder es
kal ender
p aper
ĠSitz ung
a ver
do ors
Ġgra des
F ran
U P
Ġ19 50
Ġann iversary
ĠFl ag
ĠMe eting
D ep
f ox
le tic
ĠM aking
tig ungen
viron ments
Ġ7 3
N Y
Ġver tical
laub nis
Ġutil ized
ĠG ate
med ia
Ġsuffer ed
Sch on
l u
ĠR ain
ĠScot land
Ġconfigur ation
Ġperf ekten
g ames
im b
B D
y ll
Ã¼r zen
at ar
Ġviel mehr
For um
ĠImp ort
ĠEmp fang
ĠB Y
ĠÃĸff nungszeiten
T yp
Ġsign ing
clud es
iss a
oot ing
org ungs
ĠAc tive
ĠD iffer
bu ilding
Lear n
Ġâľ ĵ
h Ã¤ndler
Ġwhe els
Ġwood en
Ġw estern
ĠA ustria
ĠBe klag
Ġcomple tion
Ġhighl ights
l uft
ĠS we
Ġzwe imal
ĠEconom ic
hyth m
Ġd avor
ter y
Ġm ult
Ġbet rachten
ĠJul ia
Ġin hib
ĠSh ops
Ġge prÃ¤gt
Ġcar b
Ġbonus es
Det ails
at iver
ĠChrist oph
ĠF ocus
ord on
ĠMar io
ĠErk rankungen
C ustom
Ġland ing
mus ter
Ġr iding
Ġhe f
ord nete
ĠHand t
ĠC oc
o a
ug ier
ll i
ĠA x
Ġpr ize
Ġverl angen
ĠFA Q
Ġp p
Ġcont ents
Ġ10 1
Ġ8 4
Ġaltern atives
Ġattemp ts
F ol
Ġt ie
Ġv intage
Ã¤ b
ic ity
ĠW ales
Ġent t
ĠCh i
Ġiniti atives
is ement
Ġhum or
intend o
ĠD ays
ahn sinn
ut ors
ĠPra ctice
Ġunexp ected
be an
Ġpack ed
ĠG a
Ġschle chte
Ġven ue
S al
at ische
ĠT ore
eth yl
ĠGen uss
Ġprakt ische
K unden
ĠWe gen
Ġmein st
Ġscen es
Ġconsist ently
: :
ĠB O
Ġend et
Ġum welt
Ġed ited
ĠE ag
Ġver anst
Ġact or
ĠKomp onenten
g ige
j u
ĠG ymnas
Ġem issions
Ġintens ive
le hen
Ġweit em
Ġbas iert
ĠRe chner
Ġam p
Ġdr ives
C lass
Ġnewsp aper
I de
p es
Ġden s
ĠSalz burg
iger ung
Ġfin ancing
p iegel
ĠMore over
ĠEben so
ĠAr n
ij uana
Ġerheb lich
j amin
ĠR enten
ĠSt ufe
ĠNach wuchs
reib ungen
200 3
ĠAust in
ĠStÃ¤r ke
me id
Ġtable t
Ġersch ien
ĠCho ose
um ed
Ġgo ogle
Ġfif th
Ġf ake
Ġcontrib utions
Ġglo be
ĠD omain
les h
en te
ĠF at
b els
ĠL ied
Ġgew ann
ĠgelÃ¶ scht
hol fen
G M
t urn
ĠC art
Ġbuy er
k aufen
Ġp our
ĠD ame
aus cht
ulti es
ĠBas el
Ġunus ual
ĠL iver
ĠPro b
Ġgr ateful
Ġtrans formation
ĠRhein land
Ġfor dern
Ġm ann
Ġjemand en
ĠSp rachen
ĠCor p
o il
ĠW y
ĠTur key
ar ischen
Ġg ig
Ġim pression
Ġsaf ely
ĠKomm ission
breit ung
ĠM agen
Ġinc en
Ġgraph ic
ĠAg ent
Aut o
Ġpro hib
Ġverbind et
S ource
P ER
ĠTechn ical
en falls
it ches
Ġpower ed
maÃŁ nahmen
ĠHam mer
........ ........
Ġab wechslungs
Ġloc ate
ĠOrganis ationen
ard o
ĠHa up
Ġr ib
Ġra ising
ĠLie bes
ab ling
M obile
ĠGe gend
Ã¤mp fer
an leitung
ĠRe aktion
ĠS afe
be cken
Le ben
Ġ8 6
Or gan
m t
Ġb un
ĠMatth ias
ĠBet ter
Ġerk enn
ĠSchwier igkeiten
F ach
W O
Ġf iction
ĠL am
Ġsub sequent
lÃ¤ uft
ĠJ ane
Ġcomp rom
zeug ung
Ġfro h
C ode
ons in
per rt
Ġview ing
Ġst ack
ĠKore an
Ġcomb at
m useum
Ġz iel
Ġk rie
sp unkt
ogn itive
Ġrat ings
C re
ĠW end
Ġges ammelt
Ã¼nd en
ĠPr ince
ĠJ ess
Ġvictim s
ĠBetroffen en
Ġemer ging
Ġbeit ragen
> >
ra it
Ġbroad cast
Ġang le
wissen schaften
lÃ¤nd ischen
Ġbe le
Ġcar pet
f utter
ĠB ased
over ty
emin ar
Ġod d
ĠUpd ates
Ġj ahr
Ġer mittelt
ĠT E
ĠOr th
Ù Ħ
Ġverl angt
Ġhear ts
Ġinst antly
ĠKosten lose
Ġzwe if
Ġsout hern
re geln
Ġl aser
Ġgovern ments
Ġm aps
Ġres erved
Ġlang fris
l iances
H K
Ġdisc ounts
isc onsin
Ġexp ort
Ġp ays
ĠMed ium
Ġvolunte ers
f ound
Ġh Ã¤ngen
ru iting
Ġfew er
Ġdiscuss ions
ĠF resse
sp er
m aster
ĠPl Ã¤tze
Ġh ieÃŁ
ĠThe atre
Ġscen ario
ĠPortug al
r ische
Ġb lau
Ġbene id
Ġp fl
Ġowners hip
O ber
fer ien
be handlung
ĠJose f
ĠH itze
Ph il
Ġhor izont
ĠRet urn
i agra
ĠBre ite
Ġdiagn osis
beit rag
C OM
Ġl iability
fur ter
o ids
d ale
ec tiveness
Ġover view
ĠForsch er
ĠDe ath
Ġdest ru
c over
áĲ ħ
Ġele cted
ĠD ual
Ġlang fristig
sph ase
Ġunter nehmen
ĠAuthor ity
an ia
Ġe hren
ĠSt ories
Ġprincip al
Ġsurg ical
Ġl as
Ġ9 00
ĠD est
ang le
Ġdec line
hn er
Ġro lling
Ġexp ense
ĠDen ken
Tele fon
Ġbet ont
ĠRo hr
Ġclick ing
ICH T
Ġz ertif
Ġc ater
Ġhal te
Ġbehand eln
ic ts
Ġhin zufÃ¼gen
ĠfÃ¼ hl
# #
pos it
e o
ĠOp tions
Ġletzt lich
ar if
uss ia
ĠEin trag
F ilm
geb iete
ĠKÃ¶r pers
Ġmeas ured
as ions
ry pto
ĠDefin ition
ĠSch okol
teil te
ĠTÃ¼r en
Up date
F O
u ers
ĠD IN
inc oln
Ġecht es
ĠV eter
Ġbin ary
ĠGrÃ¼nd ung
ĠHighl ight
G S
ĠD ER
ĠE ier
geb Ã¼hren
d ienste
Ġst ammen
ake te
Ġple asant
our en
ĠCh or
ĠMain z
Ġun zÃ¤hl
ac ular
pe icher
sp ot
sh irt
Ġexpl oring
produ ktion
Ġab and
pr uch
person al
o ppen
Ġnavig ate
Ġoper ational
ed ge
Ġmet abol
ĠM aps
ĠO H
ĠComp lete
Ġir rit
ĠRa uch
be utel
ĠTechn ologies
Ġbreak s
ps y
ĠW A
uÃŁ ball
quir y
Ġsp ir
Ġsp okes
Ġbek omme
g le
f onds
ĠBlack jack
ĠE ure
Ġind oor
Ġm essen
Ġh ospitals
Ã¼ hle
w oche
Ġm ieten
ĠAd obe
ĠR O
Ġers etzen
Ġele ctions
ĠProf ile
Ġhol es
ĠNE W
Ġbed ienen
il ian
ĠZ ust
Ġreag iert
p op
ĠM esser
ĠWeiter bildung
ucks ack
Ġ; -)
Ġdistrib uted
ver antwort
ĠVor stellungen
ĠEp isode
Ġun e
Ġgesch ickt
Ġmod ified
ĠGra b
ĠHighl ights
ĠbestÃ¤ tigen
Bere ich
Ġh ide
Ġche aper
ĠVis ual
xy gen
ro h
el in
ĠfranzÃ¶s ischen
w unsch
b Ã¶rse
Ġ ende
is ely
und ry
ĠF ax
ĠAn sch
ĠD ave
stÃ¤nd ige
h ose
ĠVor feld
ĠMa ÃŁe
Ġsusp ect
... "
ĠDrit tel
s i
Ġneg ativ
PrÃ¤ sident
Ġkein em
end ienst
ĠQ uer
Ġentwick elte
ĠErfolg s
ĠUN D
ĠMon te
Ġfo am
ĠUnter haltung
Ġgesch ieht
d atum
k Ã¶mm
klÃ¤r t
Ġcreat ivity
jen ige
C ard
ĠO sc
ĠBe arbeitung
Ġar tificial
ar g
orre ct
Ġausges prochen
our i
Ġbra uche
N C
Ġbe zieht
au tion
Ġbedroom s
ĠSchÃ¶n heit
ĠSchw eden
ĠD ragon
anze ige
Ðĵ r
ĠPlan et
Ġbeneid enswert
ar isch
ĠF inn
Ġun gewÃ¶hn
ĠAf D
Ġauf blasen
ungs los
ordin ary
ĠWissenschaft ler
Ġfin est
Ġsubst ance
ĠC offee
ĠThe orie
ial en
ĠÃ¼ber rascht
Ġverwend eten
iat ric
ĠFurther more
ĠV ill
ĠFavor iten
Ġs orts
Ġvor an
Ġcont rovers
Ġsure ly
Ġinstr uments
ĠY outube
Ġ7 1
ĠD ing
Ġbesch Ã¤d
Wel come
ĠFig uren
Ġsu ite
ahr ung
C amp
Ġover come
ĠHier bei
E ach
ĠD ingen
ĠL och
ĠHa upts
ven tions
ĠReg ierungs
Ġung ut
ĠSchne ider
ĠKrank heiten
ĠRes ults
Hel p
th on
schl Ã¼sse
Ġparticip ating
ĠW W
ĠI ce
J oin
rib ution
ĠJed e
ĠPoten zial
Ġaus sieht
Ġbase ball
rei he
A CH
C are
ig nete
ĠH ur
auf gaben
Ġke ys
AR E
Ġreview ed
ĠMinn esota
Ġeinver standen
b urn
Ġre act
Ġgra ce
ĠFernse h
ĠErfahr ungs
, ,
z ert
ite te
Ġoper ated
fer ences
ud io
ich tige
ac le
ĠzuverlÃ¤ss ig
f z
ĠM ama
Ġrepe at
ĠGene hm
9 00
ĠEn tz
Ġtechn isch
Ñ ı
Ġt v
ro st
ĠPro be
ell a
Ġmet all
Ġm old
ĠM aur
Ġthink s
Ġclub s
ĠUr sprung
Ġtats Ã¤ch
ĠDein er
Le ider
ĠW C
IN D
l Ã¤ndern
L ive
Ġwe isen
T el
sch ne
il itation
Ġwar tet
T her
ul se
is d
X X
Ġc ow
Ġall gemeine
IT H
ĠDiam ond
Ġmus cles
ĠÃ¼ber wiegend
Ġcomp act
ĠAg reement
Ġcon vert
Ġkombin iert
Ġsoph istic
Ġapp ointed
ĠFor ums
I AL
ĠLand wirtschaft
ĠD ue
ĠKaff e
flÃ¼ ge
ĠKur se
ĠWil helm
B ad
Ġbek omm
ed u
ĠF onds
ĠG am
ĠVor schriften
Ġemp ower
ĠFe iert
ro it
re if
ach us
M B
Sh irt
isc al
ĠSold aten
Ġfollow ers
ument en
ĠGespr Ã¤che
ĠOnt ario
Ġunter en
Ġprec ious
ig ation
h Ã¤ngen
ĠN BA
ĠK ult
own ers
ĠUnter lagen
ĠG O
Ġfra ge
oper ative
ĠschlÃ¤ gt
fe hler
ĠSum me
amil ton
Am azon
Ġ198 8
uch tet
our cing
Ġfound er
ĠKlass iker
ĠNe ck
ĠHy per
Ġne hme
Ġsole ly
tend lich
ĠHÃ¶ch st
Ã¤ le
Ġdiv or
ĠR ick
ĠVor gaben
enn y
ion al
ĠSt y
ĠGlÃ¼cks spiel
Ġposs ibilities
ĠSw itch
ĠangekÃ¼nd igt
bet reuung
Ġm ad
ĠPre p
back s
Ġzug Ã¤nglich
b ag
Ġemp fehl
Ġanswer ed
or p
ĠSe ver
ĠC ars
M aterial
Ġsch merz
ĠFre ien
ĠP ension
I mm
Ġver kauf
ĠG ross
II I
J ack
l on
Ġspec ified
ĠAuf tritt
ĠCle ar
ĠCommun ications
ug er
Ġflo ors
Ġtradition ellen
V om
u ar
ĠEx istenz
ĠGer Ã¤ten
fakt or
m obil
vers icher
Ġerziel t
Ġconcentr ation
U D
ĠWel come
Ġprogress ive
ĠT um
Ġsub t
ĠEigent Ã¼mer
Ġen vironments
iven ess
up id
Ġrechtzeit ig
ĠM C
ish es
Ġober en
Ġw aters
Ġarres ted
ge ts
ĠPar lament
Ġmobil en
gespr Ã¤ch
es c
obil ien
Ġh Ã¼b
Ġintell igent
ĠS ah
Ġconsult ation
Ġdisku tiert
Ġd auern
Ġbe an
ĠAn sprÃ¼che
Ġbeeinfl ussen
ĠNord rhein
ĠC ulture
ĠJ ason
Ġlock er
Ġacquis ition
Ġtalen ted
Ġz ut
if fen
ĠX L
Ġfra uen
ip er
Ġres ident
bet reiber
ĠO wn
Ġra c
ĠRegel ung
Ġinterview s
Ġback up
ĠgrÃ¼ n
L aut
ĠP ull
E UR
ĠÃ ł
T unes
Ġsuch e
Ġhope fully
rieden heit
Ġhapp iness
sch ra
Her z
Ġg allery
ĠC reat
ab ama
Ġsch licht
ĠVer eine
Ein en
r ary
ĠCo aching
ĠAltern ativen
ĠS orge
ov ic
ĠBer ater
ĠEs c
Ġprof its
Ġchem icals
ape u
Priv acy
ĠEvery one
rang ig
o hne
ĠH amm
Ã¤ be
ĠB Ã¼nd
ĠAk te
ON E
ĠForm el
ĠAn gabe
Ġperform ances
Ġinsp ection
ĠNieder land
Stand ard
f ab
Ġ9 4
ĠX P
Ġaller g
il arly
ĠÃ¶ff net
Ġpregn ancy
Ġcomple ment
ĠgroÃŁ zÃ¼
im er
Ġch er
Ġimportant ly
ĠUs ed
Ġk Ã¼nst
ĠZ ie
ĠAr k
Ġzu ges
Ġimm une
ĠMein ungen
West falen
tel s
K an
Ġf ung
ip her
ĠGefÃ¼ hle
ĠB irth
Ġexpand ed
ste p
ĠTh ai
ĠDe ep
or ama
cy cle
A uÃŁerdem
ĠAus gleich
pro zess
Ġinten se
Ġl adies
Ġcomp ete
ĠAuf lage
osp el
Ġanges ichts
Ġsurv ive
ĠAl p
Ġgen aue
mitglie d
W M
Ġgepl anten
p unkten
Ġschwar zen
m ir
Ġl ip
ĠVorder grund
Ġflo oring
Ġenh anced
oun ce
Ã¼ck t
ĠAuf stieg
ĠgÃ¼ns tiger
Ġaktiv iert
ĠFant asy
Ġsim ultane
ĠLang uage
Ġb ass
Ġpl as
sc ale
ĠBek annt
Ġtag ged
ĠG ibt
Ġerforder t
Ġunge liebt
Ġaddress ed
Ġfinanz ielle
sch iff
ĠAn schlieÃŁend
Ġmy th
Ġprodu ces
Ġpromin ent
ĠTrip Advisor
ĠFe uchtigkeit
ĠM ord
rÃ¤ um
Ġprogram m
ĠCost a
Ġch ip
Ġlie fer
Ġsur ge
ch or
Ġf iber
Ġgro cer
Ġcour ts
( )
Ġp up
ĠD ry
if i
hÃ¶r t
Ġview ed
ĠSa udi
spro gramm
Ġamerikan ischen
Ġand roid
ĠN ations
meld et
ĠT rÃ¤ger
rep ublik
Ġapp lies
Ġjud gment
Ġrom antic
Lab els
c ut
Ġat ten
Ġcheck s
ĠJu den
Ġcl ip
Ġparam eters
P andemie
sel n
l inks
ĠD rogen
ĠGar age
kn Ã¼p
ĠQues tions
g renz
Ġab und
Ġce iling
Ġjew elry
ĠC AS
Ġab nehmen
Ġmed ic
Ġto mat
ĠWo hnen
Ġexplan ation
Ã¶n ig
Wh ether
Ġpick ing
Ġsleep ing
best and
ĠL ob
ĠWider stand
d d
ĠP D
ĠWork shops
ab out
Ġresol ve
Ġenjoy able
1 10
D ata
k och
g igen
rom a
Ġop tional
Ġse ller
ĠIll ustr
ĠN AT
ĠN J
c ost
Ã¶r g
ĠBra un
Ġexerc ises
Ġexcl us
ĠH ose
Ġ2 20
ĠAus fÃ¼hrung
US A
Ġ8 7
cl usive
ĠAlt stadt
ĠE P
ockt ail
ĠF IG
lie der
hr itis
ĠTre ffer
hr te
ot ation
Ġ9 3
ĠLog in
Ġdram a
att an
Ġen l
ĠLe gend
k asten
ĠF ive
Ġha ck
Ġ8 2
Ġannoun cement
T rotz
z iele
Ġan th
Ġdiagn os
ther apie
fÃ¼hr te
hard t
Ġheav ily
Ġlo op
ĠStad ium
quick lich
Ġp ets
Ġg ay
ĠN avy
ĠTour isten
Ġadministr ative
Ġro ots
Ġburn ing
ĠC e
Ġaus gesch
Ġnut ri
ĠG itar
Ġk Ã¼nstler
ub b
Ġum so
Ġpass end
Ġsk i
ĠPal est
Ġbe arbeitet
ĠG ig
ĠK ansas
Ġver glichen
Ġout s
Ġofficial ly
Ġal uminum
ĠLe uten
folg enden
Ġc and
om i
Ġbelieb ten
r imin
olog ists
" ?
ĠR ating
ĠWelt krieg
ĠG all
ĠCom mercial
Ġlaw yers
Ġpot ent
ĠB A
T T
Ġch airs
Ġ3 65
Ġpassion ate
ĠK ings
ĠComp anies
Ġab road
tra um
Ġlo ose
ĠU t
ĠBes itzer
ĠSep t
Ġprosp ects
AR S
w l
ĠC PU
Ġspecial ists
Ġlang er
ĠK oll
Ġse am
Ġproduc er
Ġmind s
g ree
asch utz
Ġord inary
Ġver folgt
ĠR ena
ĠO tt
Ġer zeugt
enn er
Ġaim ed
Ġmensch lichen
Ġentreprene ur
Ġh anging
ater al
kl usive
Book s
Ġdu ties
IT E
M er
k rÃ¤
ĠV ene
ĠÃ¼ber t
ĠKu gel
Z ahl
or i
ear ing
Ġh oney
ĠEr b
Ġfinanz iellen
ĠCH F
Ġhab it
Ġwirtschaft lichen
Ġhe aven
ĠKarls ruhe
Ġa menities
ĠS obald
Ġp orn
Ġbehav iour
ĠL uk
Ġapprec iated
ĠG Ã¼n
Ġch est
ĠSp azier
Ġshe ets
Ġsett lement
ĠAndre a
n isses
Ġn ose
d oc
B ig
kl assen
ĠCre ate
k amp
ĠMen gen
ri um
ss on
ash ed
aun en
or tion
Ġp ipe
R C
Ġc ircle
ĠV ac
ĠUnter richts
ĠBes timmungen
mon at
J ugend
ĠR AM
Ġnetwork ing
Ġremark able
utsch ein
Ġconnect ing
L D
ĠGer Ã¼
ĠE arly
Ġgra d
go ogle
person en
Ġqualit ativ
at ischen
ĠAr men
Ġtoll es
ĠLaur a
O l
fÃ¤hr t
Ġberech tigt
Ġflex ibel
b Ã¼r
ĠSte am
C ookies
Ġso cc
Ġwrit es
Ã© e
tes y
Ġgeziel t
ĠArzne imit
Ġakzep tiert
ĠInternets eite
ran ged
ĠEd ge
ĠS oph
ĠhÃ¤uf iger
Ġnorm ale
H is
ĠR ober
ĠB ond
hol der
rÃ¤n kung
c asts
Ġ9 2
ĠKredit karte
ĠVermÃ¶gen s
fÃ¶r m
al g
ĠTra iler
Ġlet ting
ĠAufs ichts
Ġhost s
ĠB ird
ec tic
aus bildung
or tiert
Ġthe oret
ĠR aj
ĠMel bourne
ĠResp ons
b age
ĠL ade
Ġdist ingu
ĠkÃ¼rz lich
Ġein heit
pl ant
Ġdur ation
Ġc ats
ur ious
ac o
ĠAb ge
mann schaft
ĠOt to
ĠM u
ĠR oth
ĠN urs
Ġteil s
Z immer
ĠL ov
G ruppe
en tial
ĠC M
Cl oud
ĠBow l
achus etts
as ie
Ġin halt
Ġpar agraph
ĠTurn ier
aum en
ĠL ar
ĠB ott
Ġ8 3
Ġbal anced
Ġnorth ern
ĠMotiv ation
S uche
Ġ3 000
Ġsurv ival
G anz
ĠMe g
Ġrare ly
Ġsp ins
her z
amp oo
ĠPol iz
ĠB Ã¶rsen
Ġac tively
Ġremov ing
f i
on ut
work ing
omen te
baut en
Ġsocc er
ĠSt rukturen
Ġmach inery
ĠBuchst aben
M el
ĠL etz
Ġbre ite
find ung
spe zif
j ection
Ġa est
Ġcol ours
Ġvolunte er
ut ze
ĠZ one
Ġdel ivers
Ġrest ore
Ġgewohn t
ul Ã¤r
Ġvorhanden en
Ġzu gelassen
Ġtra iler
geb Ã¼hr
ĠUm zug
Ã¤um t
S ocial
ĠAn ges
me ga
Ġfrequ ent
Ġacknow led
ĠGesch Ã¤fte
ĠBask etball
om ach
ĠPro test
ĠV ER
Ġcon j
Ġro ten
Ġprov isions
Ġmo on
Ġerleich tern
r one
ĠH omes
qu er
ĠIn iti
wer fen
Ġdis miss
Ġd ick
th al
Ġsp are
ĠLe icht
Ġrece ption
legen heiten
Ġconvers ations
ĠB ind
Ġcustom ized
asc ular
Ġschne iden
l ay
jek ten
ĠK Ã¶
ĠL iquid
mpf adern
r ass
ĠDes cription
iction ary
k ommun
ver lauf
Ġfant ast
Ġapp le
ĠA K
ĠSt ay
Ġwork er
rÃ¤n ken
i he
Ġemb ed
Ġsus pend
Ġade quate
A ch
ĠP ots
til ity
Ġwo hnen
Ġimpress ed
am ents
op tim
gesch windigkeit
ĠR ate
Ġtrans lation
nd rome
u v
ĠB h
ĠM L
G L
h off
ĠF irm
ack er
ĠMag net
} }
ĠB eth
ach r
ge halt
Ġ4 50
ĠBil anz
k inder
Ġausge fÃ¼hrt
ĠPass wort
ĠEreign isse
ĠGroÃŁ britannien
ĠH aben
Ġsp ell
tif ully
rein igung
Ġcap ability
ĠIns besondere
ĠMar sh
Ġange fangen
ĠCar bon
ĠSch leswig
Ġtro ck
S I
ĠInvest itionen
Ġexter nen
Ġre hab
ein heit
Ġsurf aces
Ġn ein
be h
og an
Ġuner quicklich
Ġplug in
Ġer fasst
ĠDec or
Ġd os
rupt cy
ĠAl i
ĠPl atform
ĠS onn
ĠG A
ĠAus gaben
Ġmov ements
ungsk osten
ĠDok umente
ĠAtlan tic
o ires
ĠP izza
Ġexce ed
ĠFl ucht
Ġsign ature
ĠK ob
Ġan fangen
Ġgel assen
Ġconstru cted
Gro ÃŁ
ĠB iden
Ġk illing
ĠSch au
ĠAus einanders
Ġresul ted
i op
ĠN oten
Ġ' :
Ġoper ators
Ġmorgen s
usal em
Ġphotograph s
az itÃ¤t
Ġcompet itors
) -
ĠSÃ¼ ÃŁ
Ġpla cement
Ġb aking
et ary
Ġver arbeiten
ĠAus zahlung
Ã¶ hnen
weis ungen
lÃ¤uf ig
Ġc entr
tra ck
b end
et a
ĠAutom obil
Ġm Ã¤nn
k olle
v ard
la red
Ġsome how
ĠEd ward
Ġtext ure
ĠCamp us
Ġs ach
Ġzust Ã¤ndig
ti ff
gener ation
ĠM inder
Ġwid th
Akt uell
ĠGriechen land
ĠIndivid ual
ĠSchauspiel er
ĠR as
Ã¶ sterreich
Ġret ten
Ġleg te
Ġall zu
ĠGew erk
ĠPfer d
ĠEnvironment al
ĠM uch
lass ung
Ġverb reitet
ĠÃ¤lter e
Ġenthus ias
ĠAutob ahn
l Ã¶sungen
v arian
Ġret ro
ĠTo ile
ĠDemoc ratic
S u
at on
Ġun mÃ¶glich
Ġor ient
Ġsch lieÃŁt
red ited
S icherheit
ĠF ritz
Ã¶ h
Ġfor der
Ġver he
ĠImp act
Ġbest mÃ¶glich
izz ling
ov o
Ġent f
Ġwork out
Ġgu ides
Ġep is
Ġs age
ĠKÃ¼nd igung
or ia
ĠMaterial s
ĠChampion ship
am as
Ġf esten
ah me
L ove
Ġw ise
an ie
Ġsteig ern
tikeln ummer
M il
ĠG il
J eder
ĠBeg rÃ¼nd
Ġs ectors
ĠKr ist
a it
Ġre verse
fen ce
Ġdemonstr ated
Ġr asch
ĠSt op
Intern et
ĠI dentif
Ġr anging
Ġpro test
Ġcoin s
ĠprÃ¤ z
ĠToy ota
ĠAc tiv
p aar
Ġcle ver
Im mer
p iece
ĠP as
Ġsp acious
P H
r ine
ur teilung
scheid et
est y
Ġdocument ation
ĠKund ens
ĠL oss
Ġlog in
D el
b ird
Ġan geschlossen
Ġdis aster
Ġc otton
ĠSchad ens
ĠOr ten
ĠBet on
ĠFran zÃ¶s
Don ald
ĠDub lin
geb lich
ĠVal ue
Ġfestge legt
Ġvors ichtig
ĠHein rich
ĠWerk statt
ĠVer st
Ġagre ements
Ġhe utzutage
Ġ Ã¤lt
ud ia
zie her
un ate
ĠB ah
Ġaggress ive
c re
ĠSu ccess
ĠBal ance
Ġsuper b
Ġmeaning ful
N ET
ĠJ oy
Ġabsen ce
Ġco operation
in ema
Ã¶ ck
ĠMem orial
Ġpopular ity
Ġsle e
d it
Ġrec all
haus es
Ġkonzentr ieren
ĠAdv ents
ĠClin ton
Ġlauf enden
Ġst amp
ĠZ oom
ster dam
Ġref ers
ĠH amp
Ġwe iÃŁen
Ġâ ĸ
ĠBe handlungs
Ġver ur
ĠAb wehr
ĠDe pression
ĠOx ford
ĠAb onn
com merce
ĠAm ong
Ġrecommend ation
Ġglaub t
Ã¤mp fung
Ġren omm
Ġcompat ible
Ġpil ot
ĠL aun
ĠAnd erson
ĠhÃ¤ufig sten
S D
id al
ĠWettbewer bs
Ã¤nger ung
Ġerw eiter
recht lichen
or tieren
ĠPort folio
w inkel
ĠWissen s
ĠConn ect
ĠBatter ie
ĠRegel ungen
Viel leicht
Ġmatch ing
ĠK amer
Ġentscheid end
ĠP E
vious ly
ĠIndian a
prech ung
ĠHaft ung
ĠFer tig
Ġrespond ed
Ã¤ fer
Ġoper ator
ĠHel fer
Ġd imension
ĠUm frage
mp el
En ter
omb ination
T able
ĠAd vert
h Ã¤usern
Ġ Ã¤ndert
Ġbe herr
ĠLink edIn
Ġprec ise
f ish
ĠÃ¼ber zeug
ĠDe als
ein richtungen
j ob
ĠDe te
bach er
Ġangeb lich
Ġd eter
Ġsch aut
ĠBer Ã¼cks
m ass
K omm
Ġk op
zw ungen
ĠKÃ¼hl schrank
ĠYear s
d ach
ĠBl Ã¼ten
if ted
ĠT ower
ĠB os
ol in
200 2
Ġre isen
gem acht
Ġkonkre te
ĠA er
ĠEin tritt
Ġkurz em
F E
ĠL ein
Ġbe legt
News letter
Ġf ruits
ĠF Ã¼nf
ag an
W A
b ein
Ġbe fÃ¼r
w riting
Ġc ab
âĢ ħ
Ġdevelop ments
sp ace
au c
ch at
un ion
ick ing
anc ouver
ĠÃ¤lter en
ĠD ise
Ġexp lo
ĠKn ochen
Ġthorough ly
er es
Ġenable d
ĠgefÃ¤hr lich
M a
ĠCom b
c up
^ ^
ĠM is
schn itts
worth y
Ġcrush ers
t rans
ol ogen
Ġtr ash
ĠKan al
akter ien
Ġannoun ce
âĪ Ĵ
ĠB auer
ad ium
ver zeichnis
ĠPal ace
ungsver fahren
ĠImmobil ie
Ġbef es
I r
ass ion
Ġfol der
ĠBas ic
Ġirgend wel
Ġt iefer
Ġimp acts
tell ungen
Ġpass es
ĠAb teilung
bre ite
ĠRec ords
Ġregistr ieren
Ġg Ã¤ng
ĠD B
Ġdies el
Ġsw ing
ĠOnlin esh
k ons
ĠAnth ony
Ġges unde
ĠL ooking
be wegung
Le istungs
ĠSport wetten
N a
Ġs telle
ĠE gypt
P s
Ġv enture
el sea
ol ta
ĠMitglie dern
w etter
Re al
lik ely
ĠP H
f inder
Ġdist ra
Ġbul k
ĠQu ote
Ġchar ity
Ġkon kret
Ġdire kte
Ġconst itu
Ġeurop Ã¤ische
fahr zeug
ĠStud ierenden
Ġ198 6
ift y
ĠhÃ¶ch st
Ġprocess ed
ĠgewÃ¤hrle istet
Ġun emp
Ġefficient ly
Ġexter ior
C M
M ir
ĠE ye
sp ringen
ĠVer wand
Ġvulner able
ĠS ender
Ġanaly tics
ĠZur Ã¼ck
Ġb und
ou b
ĠfÃ¼hr enden
Ġfra gt
Ġs enten
ĠR uhr
up fer
Ġent sch
auf bau
Ġg ym
ĠF DP
ĠC el
ĠEr z
pl ing
Ġcompla int
ĠWire less
Ġm un
fÃ¼ llen
Ġdete ction
ĠF ram
es ign
ĠProjek ten
verkehr s
Ã ĥ
Ġab ends
Ġver letz
Ġbl ow
Ġum gehen
Ġprof iles
Ġdef ensive
Ġwe ird
Ġtr at
Ġrele ases
Ġconsult ing
g ood
ĠJahrzehn ten
gn Ã¼gen
Ġincor porate
Ġh ub
st unde
up loads
Ġocc asions
aut hor
ĠMor gan
ul ierung
ĠMal aysia
ĠC ape
Ġst ruktur
Ġgather ing
Ġst ops
Ġbere chnet
Ġorganis ations
i w
ĠS urf
ĠA Z
ĠPress emitteilung
tra ining
Ġoff line
ĠR he
Ġsupp lied
Ġg Ã¼l
ĠJ ens
Ġcomplim ent
ĠL ot
Ġcont acts
Ġnew est
row se
ĠD IE
ĠKon ferenz
Ġtem p
Ġexpand ing
Ġm Ã¤ch
work s
Ġle ck
ĠGra de
ĠProf i
P op
ĠAss embly
Ġnarr ative
il fen
man ager
lah oma
C ategories
ĠG az
Ġcann abis
Ġ Ã¶rt
Ġas ks
ĠSh ipping
ĠT an
ĠRe kord
Ġpurs ue
ĠUpd ated
ĠR av
ĠHan f
ĠNeub au
Ġc ush
ro g
Ã ł
iv est
Ġestablish ment
lish ing
Ġfast est
Ġoffiz ielle
eram ic
Ġa ged
ĠKÃ¶n nen
Ġ20 23
Ġprov ed
geb nisse
ĠlÃ¤ng ere
Ġnachhal tige
ob i
Ġnotwend ige
Ġbekomm st
ĠW isconsin
sp reis
Ġgesch n
meld ungen
ergeb nisse
Ġsh ed
Ġdis order
f ood
id d
ĠAuf lÃ¶sung
Ġrepresent ation
ĠH ut
Ġen or
Ġpush ed
ĠP ic
Ġinfl amm
Ġground s
Ġhy brid
ch i
ĠWork s
ĠKle ink
z es
eten zen
Ġ ut
and ise
Ġestim ates
ĠPerspek tive
Ġto ys
ĠSt uhl
Ġpain ted
Ġr ings
H o
Ġhab its
ĠWe ber
ĠJe ans
ĠSchool s
Ġunivers e
ĠErweiter ung
Z we
ĠDaten bank
Ġspecial ized
ĠÃ¼b lichen
Ġsons tige
ER N
Ġgener ations
ĠÃ¼berprÃ¼ ft
IS S
ĠPop ular
Ġcomp an
ĠBer ichte
Ġh ip
Ġk athol
ĠAr ena
ren cies
ĠTe en
ĠS endung
ib et
ĠBot schaft
Ġeinget ragen
C all
ar enz
ĠO bs
os ystem
ste hen
ĠVor aus
ĠMÃ¤n nern
Ġstatt find
Ġj Ã¼d
voll er
Ġsitu ated
C ity
Ġmount ains
h eld
ĠAnwend ungs
Ġbacter ia
ĠS oul
verse as
Ġterr ible
s upp
ĠFl at
ĠIm per
ĠB GB
me chan
E ing
ĠV ul
Ġfar b
V A
ĠUr heber
Ġsch einen
hÃ¶r ige
Ġstruct ural
ĠPl Ã¤ne
i essen
ĠUn abhÃ¤ng
ĠEr Ã¶ffnung
Ġtempl ates
Ġwe iÃŁe
ĠEr sch
IS BN
Ġ198 4
c ra
ĠN ep
D ruck
M at
aw are
other apy
ĠK Ã¼nst
ĠCl im
ĠCharl otte
Ġfor e
ĠKon text
Ġbro thers
ĠGutsch eine
IN T
R ob
g ibt
ĠOrien tierung
re tion
ĠD ick
ĠNe ust
ĠGew Ã¤hr
ĠY outh
ĠAl arm
sm ith
N G
Ġgew al
Ġel der
ex per
Ġmanufact ured
" >
ĠPl atten
ĠCh ip
Ġbelieb te
J ob
k au
ĠK enntnisse
ear beit
Ġelse where
ĠSch ach
ĠErk rankung
ĠK ick
Ġad mitted
Ġf unk
Ġrespons ibilities
x it
on ly
Ã¤l te
C ap
w achs
and t
ĠHar ris
hn te
esell schaften
ĠJed es
Ġgetr ennt
ĠDem o
Mus ik
Ġtes tim
D ienst
fen ster
Ġschle chten
Ġpark s
ĠJ og
iz ations
ĠComp et
ĠK leine
ĠSim ple
Ġwundersch Ã¶n
Ġpublish ing
Ġerweit ern
ĠInd ien
S O
Ġangen eh
wo gen
igkeit s
al p
ĠL incoln
Ġ15 00
Ġf f
Ġ Ø
im i
Ġ8 1
ĠAnd y
ĠAd ministr
Ġdiffic ulties
ipp e
Ġzuf Ã¤
ĠFab rik
Ġpract ition
P an
Ġdis plays
ĠPh oenix
c ements
Ġf emin
ĠK ammer
W ed
ĠSp rech
ath ers
ĠH onda
ĠVersand kosten
ĠL okal
pr ises
ic ates
Ġwis dom
F ans
ĠSch alt
u ation
fe hle
Ġcur riculum
ĠGew ichts
Ġfa ult
Ġauf gestellt
gere cht
h art
pr im
ĠP atch
ĠK B
Ġbeste hende
Ġkon st
Ġcap s
Ġdeath s
ĠCam bridge
gefÃ¼ gt
z o
Ġw Ã¤r
ĠChe ap
ĠS ett
ĠR uh
end lich
ĠErk enntnisse
Ġvend ors
ĠK issen
ransp ort
ĠHin blick
st Ã¶rungen
Ġre ven
ak tions
ĠSp ekt
ĠD river
ĠGe fahren
Ġwell ness
Ġpat io
ĠBab ys
Ġpregn ant
enness ee
M ac
ĠH ung
Entw ick
A sk
f ix
ĠW att
ĠZ entr
se ason
Bew ert
Ġhyd ro
ĠEl ite
Ġmet ers
or neys
at al
ĠCast le
y our
ti ft
Ġi Tunes
ĠPat ent
ĠAnge la
ĠFriend s
ĠUnc ategorized
Ġentt Ã¤uscht
ott a
ĠKo hlen
Ġoff ensive
Ġd ial
Ġvers orgt
o ons
Ġb ands
Ġcor por
ĠPan el
ĠT iefe
ĠP end
ĠAus kunft
funktion en
Ġdepart ments
oth ers
Ġsty lish
k ter
red ite
Ġhoh em
Ġb uff
Ġsch Ã¼tzt
Ġaus ser
Ġdefin iert
â ľ
it us
Ġw are
Ġein ig
ĠV inc
Ġprefer ences
erv ing
ĠDe fense
ĠFlug zeug
ĠÃľbers etzung
L ooking
ĠC opyright
im pf
ĠTra uer
gesetz es
ĠBÃ¤ ume
ĠFernse her
ĠAnton io
ier st
Ver anst
Ġber ichtete
Ġgrie ch
S pr
Ġd rÃ¼cken
Ġsch Ã¤tzen
ĠDein em
R ock
ĠA achen
Ġsing ing
ĠSch ild
ĠgrÃ¼ nen
g nung
Ġfe iert
los er
m outh
ĠP av
Ġadv ised
och em
Ġblog s
Ġath letes
Ġat tain
Ġev angel
ĠAll iance
ĠKon kurs
sp rÃ¤
Ġinter actions
Ġpar ad
Ã¶ff entlichen
ĠAfr ika
b rief
Ġsh apes
al tete
ĠPar am
Ġhard ly
is or
Ġover night
ĠGesch enke
n ab
Ġdre hen
m ung
Ġver an
ĠAr ticles
M ann
p aket
Ġres erve
Ġde leg
ĠBrÃ¼ cke
Ġkorre kt
Z e
Ġd om
Ġdas h
Ġvor zu
Ġunder lying
Ġcop ies
icip al
Z wei
Ġdein es
C al
ar at
ver mittlung
Ġrepresent atives
Ġprec isely
ĠWass ers
Ġp upp
isch end
ĠGrÃ¼nd er
ĠSpr ings
ĠAff airs
ins atz
ab len
Ġvo ters
Ġd irt
ĠUntersuch ungen
ĠKandid aten
g Ã¤ng
ĠK os
ĠO cc
ĠBe zeichnung
Ġtr icks
Ġt ire
ĠF ish
Ġr ug
Ġfin ishing
Ġtradition s
Ġhinter lassen
ver k
arbeit ungs
Ġempf angen
ĠStream ing
Ġcred its
h Ã¤nge
ĠBut ton
ĠS ri
Ġrank ed
ĠEntsp annung
k ok
Ġde kor
omm y
ĠTag ged
Ġam azon
Ġunter scheidet
ĠLiver pool
F ull
ĠWand el
Ġor th
?? ??
U B
be wertung
Ġ198 7
ĠOp tik
v et
Ġteil te
P ublic
hand els
ĠFore ign
Ġc ord
ĠN intendo
AN N
B i
Ġreve als
Ġmaxim ale
ĠLead ership
ut able
Ġtre mend
Ġcorrespond ing
ĠW esen
Ġpr inter
Ġmarket place
ĠG ot
Ġdem nach
Ġforec ast
ĠS ac
ĠR ace
Ġabs or
Ðĵ Ñ
D oes
Ġmin istry
ver ordnung
se ud
Ġâ Ī
ĠFÃ¼hr ungsk
in formation
sch icht
ĠMon ster
Ġh ammer
ĠBlog s
IG N
Ġt urb
Ġw ound
ĠD ad
ĠCl ient
ĠDen ver
Ġb other
Ġbeg renzt
ĠForm ular
ĠGroÃŁ teil
ĠTro cken
H y
ĠArbeit sk
ild et
Ġge fertigt
Ġmoist ure
Ġh ill
Ġle ichten
ĠMan gel
ĠOut look
Ġhistor ische
ĠSp recher
Ġpres cription
ĠRob in
ĠHe x
Ġpla cing
ĠBeteil igung
Ġb old
m ans
Ġar twork
Ġm ature
erse ys
Ġvor ab
Ġintegr ity
ĠTre k
verstÃ¤nd nis
hr er
** *
glich keit
Ġ198 5
Ġanges prochen
A E
ish ment
ĠStrateg ien
Ġzw ing
ĠArch itect
Ġn en
ĠO ste
Ġann oy
weil er
Ġwor ship
ĠSp in
ĠDe cken
Ġdisc overy
Ġcool ing
C opyright
ar ms
ĠAb stand
Ġprakt ischen
ĠWe llen
ĠStud ios
ĠStrateg y
z elt
ast y
ĠSt ark
ang hai
eins atz
A bs
Ġemb od
ere um
ĠPal m
ĠNerv en
E uro
au ge
ĠPar ts
Ġblo ÃŁ
Ġgather ed
Ġk lappt
r igen
ĠH IV
Ġtra f
Î ±
Antw orten
ĠH ad
ĠIn ves
ĠLe hre
ĠNot wend
Ġphr ase
ĠSch icks
se h
ĠDunk el
Ġso fa
art z
Ġher kÃ¶mm
Ġwork shops
Ġcontra ctor
qu et
Ġbra uchst
ĠJus tiz
ĠC ou
Ġsch ul
Ġro te
Ġfe hler
Ġdis k
ĠMe yer
Im age
ĠT s
ik te
ĠT in
ĠStre cken
freund lich
Ġeff ectiveness
Ñ Į
ĠR asen
Ġm i
Ġto ilet
ĠT ak
ĠK ate
St atis
ĠBel ieb
y ball
ĠP el
mal en
Ġstraight forward
Ġger ingen
Ġfal sche
crip tions
Ġp ushing
Ġstr ip
Ġgest iegen
Ġruss ischen
Ġbit ter
Ġtack le
m ay
ĠPe ace
Ã¤ nen
ol ester
la ppen
Ġfab ulous
ĠL iz
ĠVor jahr
ule tzt
ĠMet ro
ĠSim ply
ĠTemp o
ber uf
Ġdes erve
ĠÃ¼br ig
ang aben
Ġprofession ell
Ġbatter ies
Ġt enden
Ġbes eit
K ur
an ti
Ġ19 45
Ġcolle ctions
Ġthreat s
h ersteller
Ġload ed
Ġver teid
Ġdes per
Ġhad n
ĠOff icial
Ġcru ise
S or
Intern ational
Ġreal istic
Ġmar gin
Ġaccommod ate
ĠVerpack ung
âĢĭ âĢĭ
vertre ter
Ġdepend ent
m art
ĠON LINE
Ġen er
tim edia
ed ition
reich er
Ġp overty
att ung
ĠAug sburg
Pl atz
ĠGemein schafts
Ġrelax ing
kr ise
Ġw inners
ĠEr zÃ¤hl
Ġad minister
Ġadv ise
ĠW ann
Ġste cken
ack t
att y
Ġcur ious
âĸ º
ĠÃ¤hn lichen
ĠL ater
Ġwor n
est ing
Ġgesch ehen
Ġeinge fÃ¼hrt
emp fehl
spl Ã¤tze
Ð ¼
Ġf uhr
Ġto urs
ch tigkeit
Ġt ied
Ġf ingers
ĠF ell
ĠN ike
ĠFr ucht
Ġun like
ĠNachbar n
p il
ĠPr ices
Ġtelefon isch
as tet
Ġv el
ĠR eit
ĠL ane
ĠL enk
r und
z gl
à ¥
Ġal ert
ĠVor stands
end ment
ĠD usch
Ġdiam ond
ier tem
V G
is ure
Ġqualif y
Ġtrial s
ĠTh or
Ã© s
Ñ ĭ
ĠSchul den
ĠBef rag
ĠC ream
Ġcon e
sp olitik
Ġinv ite
ond ition
ĠBer nd
ves ter
ĠTele kom
Ġfacilit ate
Ġany body
ĠerlÃ¤ut ert
ĠD ampf
Ġl iver
pr es
Ġchar ging
Ġsing er
Ġdec lared
amer ika
H ar
ĠGr ant
Ġoper ates
in th
tw itter
Ġverw alten
Ġextra ordinary
at ically
Ġb ug
Ġlang weil
ĠBaumw olle
N D
ĠZ oo
ĠSp ec
ĠFr is
L G
ĠHoch schul
En ts
ĠCap tain
Ġfascin ating
it ement
ne uer
Ġsold iers
is burg
ĠV IP
Ġfr ischen
ĠSy mbole
w ahr
Ġoff ense
Ġdar stellt
ĠOper ations
Ġintellect ual
Ġnerv ous
Ġgef Ã¶rdert
ĠWeit eren
Ġdr um
Ġgel aden
Ġein wand
ĠH amilton
ĠSch Ã¼l
ĠSteuer ung
ĠS ig
Ġbet s
Pro v
ĠTex til
ĠA ve
if ies
ĠChrist opher
pr iet
Ġdesign ing
ĠEnerg ien
ĠZ insen
ĠNe uen
Ġlieb sten
um ph
em ark
ĠInvest oren
ĠSo fort
sh ore
J o
K o
Ġf ired
ĠD ritten
er ver
Ġre wards
Ġle ase
ĠSp ot
ĠMan chmal
TH E
ĠArme e
la in
ab ad
OM E
Ġvit amin
Ġsc oring
Ġan f
Ġh ind
th an
Ġpro sec
ĠDem onstr
ĠHand lung
ert al
Ġher itage
ĠTour en
ach im
Ġdurch zufÃ¼hren
Te xt
Ġb ou
Ġse g
ĠSp uren
Ġmake up
Ġerfolg te
ĠT am
ail le
ĠTests ieger
Ġex empl
Ġ' ,
lÃ¤ss ig
Ġzentr alen
ric a
or ous
em es
Ã¶ tet
crib ed
Ġautom ated
pfl anzen
Ġrefr iger
Ġm ouse
e ed
Ġan gesch
ĠMo z
ĠMann heim
ul ver
ĠAl abama
G reen
h one
Ġb atch
ĠBezir k
ĠDiagn ose
Ġdok umen
S ind
ĠS ud
isse ur
Ġenem y
d icht
l Ã¼ssel
ĠM erc
Ġdah inter
Ġre de
ĠChem ie
ĠN ichts
Ġev tl
ett a
ibr aries
Ġf liegen
ĠP le
Ġbet reiben
Ġextra ct
ĠD imension
Ġein zahlung
Ġst ruck
Ġbei ge
G el
ĠO re
Ein stellungen
N orth
Ã¤ ge
Ġoil s
Ġball s
Ġan zub
Ġschwar ze
ĠMo ore
Ġprote cting
Ġvoll en
Ġla wn
Ġsch lafen
stre cke
ĠL assen
UR E
Ġumfass ende
Form at
p ad
Ġbre iten
Ġsp Ã¼r
v als
ĠInvest ition
ĠBeteil igten
F H
Ġp izza
ĠTr ue
Ġsele cting
Ġmith ilfe
E vent
ĠGro ÃŁen
Ġgro sse
Ġent s
Ġdam ages
Ġinves tiert
ĠAtt orney
Ġgek enn
H at
Ġe book
Ġbe eintrÃ¤ch
Ġse al
ĠOr ch
Ġdam en
Ġbill ig
Ġch ina
ting en
Ġvol tage
r idge
or ph
ĠOber flÃ¤chen
ĠKonfl ikt
F alls
Ġsch e
ug t
Ġag enda
ek s
Ġlo ads
âĢĶ âĢĶ
put y
Ġw aves
Ġro ller
Ġpersonal ized
d ose
Ġsc ar
ĠÃľber nahme
Ġkosten frei
ĠW id
ĠK alk
ĠBra ut
Ġh ence
ir ch
ĠBerÃ¼cks ichtigung
Ã¼ pf
ow ed
are t
ĠNot fall
wor te
ĠGre y
Ġfot ograf
ĠT opf
ic tions
if ier
ĠAn walt
Ġwor auf
Ġpen alty
Ġcry pto
Ġv ierten
ĠM auer
Ġauth ent
ĠNam ens
ĠR acing
Ġinfl ation
Ġd isch
ein d
Ġlie ÃŁen
v ada
ĠW ine
ag ger
Ã¼t ung
ĠZÃ¤ hne
ĠSch reibt
ĠMar co
ĠFr ist
ĠK han
ĠU C
ec tivity
Ġro cks
wirt schafts
Ġmag netic
Ġn it
be teil
Ġconsider able
in ely
Ġsc an
Ġrough ly
H ist
Ġmar g
Ġind ia
ĠFol genden
ĠJed och
ĠSo fa
P olit
w ire
um bers
Ġjeweil ige
deutsch en
Ġa ustral
ĠGr inding
ĠG ib
ĠHand werk
W issen
v ar
ira ble
it em
ĠT alent
Ġk ar
ĠL av
ĠFig ure
r ison
Ġl iest
Ã¶ tt
ĠMass achusetts
ĠFel der
ein igt
iet ung
enk orb
ĠAn erkennung
in sp
ĠEin er
ĠAus sehen
Ġster ben
ĠSoll ten
anwalt schaft
r ischen
ĠK lage
ĠK Ã¤se
ĠTh ird
Ġloc ally
ĠBen jamin
V ersch
Ġf Ã¶rdert
ĠMag n
ĠEmp ire
ua wei
e xt
ĠT u
ud s
s til
ra c
Ġ9 1
Ġtim ely
k it
ĠB ald
ĠD Ã¶r
Ġb Ã¼nd
mod us
in str
Ġact ors
ĠAss ess
ĠGebur ts
ap olis
Ġass ociate
olit an
itiv ity
p orts
ĠBo ots
ĠVe get
Ġan statt
ĠVis a
ĠHon ig
ĠTreat ment
ĠB am
Ġange ht
Ġentsp annt
Ġemphas is
ĠT iger
Ġinst ances
Ġphys ically
Ġexcess ive
Ġlie fen
Ġexclus ively
ste ig
ĠnÃ¤ch stes
h ill
ĠÃľ brigen
ĠVerm ieter
Ġk nee
ĠL atest
Ġdeutsch sprach
zent ren
Ġste m
v d
ast atur
T om
Ġ `
Ġnach t
Ġabs orb
ĠStat ement
ĠBr ig
AC E
Ġtransp aren
Ġa x
Ġpre vention
arge ld
ĠR io
tens ion
wÃ¼rd ig
ĠGesetz es
L ED
ĠA le
ĠR isk
Ġst omach
ĠKommun en
bahn hof
Ne ues
l Ã¤nge
Ġ( Â§
kehr en
ĠCan on
Ġadop tion
famil ie
g reen
uer st
ĠMary land
b rech
Ã¼t ten
ab teilung
Ġun iform
str asse
Ġsurround ed
Ġaccompl ished
Ġl ern
Ġrom ant
k rank
Ġh unting
ir s
ĠSt rip
IN O
ĠVeranst altungs
M aster
Ġunivers al
itzer land
ĠJac ob
ĠP ie
mÃ¤ÃŁ igen
ĠM w
Re ise
on ferenz
Ġin k
ck len
Ġrank ing
Ġo xygen
ĠD utch
Ġtra ders
Ġrepresent ing
Ġnam ens
Ġreich lich
ĠI G
ĠC odes
ĠVorsitz ende
ĠSpiel zeug
ĠHy brid
A ller
ted ly
ick ed
as a
ĠG ordon
bl Ã¤tter
Ġbra un
Ġobs erve
Ġfant asy
ĠN Ã¤hr
ĠDo ctor
Ġgre y
Ġt ennis
Ġnach zu
Ġacc used
Ġhit ting
ĠKlim aschutz
Ġspect rum
ĠR SS
fer enzen
ĠB ureau
ĠW etten
Ġdiffer ently
Ġunkom pliziert
n nen
ĠSch atz
P ack
n ote
ĠFl u
ĠRÃ¼ck kehr
Ġunn Ã¶
Ġdirect ory
Ġtour ist
Ġinvestig ate
ĠgewÃ¼n schte
H ersteller
ĠRezension en
A h
H ER
ĠVersion en
ĠR ange
Ġel f
Ġumfang reiche
Komment ar
Ġzusammen gestellt
K A
Ġrelig i
lemen te
ĠEr folge
ĠMÃ¼n chner
ĠMod ul
i hen
qu alif
ĠProdu ction
Ġfolg te
Ġbede uten
spe ed
Wind ows
Ġc bd
ĠP rag
ĠSti ft
grÃ¼ nde
ĠDemoc rats
Ġsophistic ated
ĠW at
ĠK ne
ĠDies en
Ġkon zip
T I
be auftrag
ĠNach folger
Ġg ram
ĠMatt hew
ĠEr halt
igh th
ĠWirklich keit
ĠO hren
Ġsch Ã¤d
P I
Ġin tra
ĠD ivers
ĠJahres zeit
gen ce
ott age
Ver y
ĠKind ers
wh o
Ã¤r zt
Ġidentif ication
Gen er
Ġreti red
re cken
ver bindung
Produ kte
lo hn
ĠRet ro
Ġdead line
ĠHochzeit s
Ġarrange ment
z ure
â Ŀ
ams ung
Cont in
stud ium
ĠZahl ungsm
ĠKon st
m ode
Ġaff ects
Ã¼ bung
ĠT ap
Ġun likely
ĠIs lands
Ġt uition
ĠA hnung
) ?
i ov
Ġpl ates
ĠJer usalem
Ġengine er
ĠD rop
Ġge holfen
la v
Ġcopy right
Ġdisapp ointed
N ord
auf wand
land schaft
Ġsol ch
que llen
Arch iv
Ġvers pricht
ĠC bd
ĠAd vis
Ġspect acular
ĠSpe isen
ĠSchn Ã¤ppchen
Ġvertra ut
ĠBe vor
Ġb aut
Ġk lÃ¤
ĠAut omat
gleich en
ĠFrÃ¼hl ing
it sch
Ġh orses
Ġde le
Ġinter vention
ĠTem pl
Ġs ne
ĠBelast ung
Ġiden tical
Ġehren amt
ĠS ER
Ã¶p fen
ĠWi Fi
gren ze
Ġab geben
k enntnisse
Ġcomp uting
Ġte urer
Ġcro wn
an er
Her r
Ġwissenschaft lichen
Ġbab ies
Ġbe merk
sp ecific
Ġg ast
ant on
Ġwirtschaft liche
Ġille g
O der
w inning
ĠK osmetik
Ġbege istern
C enter
ĠPr incip
ĠTra g
Ġverschieden sten
ĠPark s
Ġsupp lements
bro chen
Ġmedizin ische
Ġwohn haft
ĠL ith
Ġlast ing
Ġrefer ences
v ideo
ti ous
os er
Ġref uge
en cing
ow eit
ĠEnts te
Ġoverwhel ming
Ġterrit ory
W asser
ĠK assen
ĠKons um
ĠKryptow Ã¤hrungen
et ra
ãĢ Ĥ
re chn
ĠG host
Ġwalk s
ĠProte in
! ).
ĠSp err
Ġd up
Ġerforder lichen
Ã¶ he
Ġwork force
ĠâĢ ĭ
tel t
organ is
us sten
Ġimm un
in tens
ud a
Ġkonkre ten
Ġex it
Ãľ bers
ĠC old
ĠÃľber tragung
c alled
sch uh
ĠHo hen
ĠAugen merk
Ġnational en
ĠRet rieved
ĠB ars
fl Ã¼ss
ĠGovern or
Ġlabor atory
K ap
Ġcon stra
Ġn ahmen
Ġcons olid
b onus
ĠS ure
Ã¶n t
ĠAdd ress
strateg ie
Ġm ills
Ġinner en
ĠKant on
me er
am el
Ã¤mp fe
ĠB I
arge t
ĠSupp ly
Ġrad i
Ġautom ation
Ġs q
Ġein erseits
ĠG n
it ual
ĠAm sterdam
Ġrepl ied
Ġacknow ledge
ĠSchrif ts
Ġer lauben
ĠPay pal
Ġencour aging
an as
ĠF M
Ġun lock
ĠDurch schnitt
bereich en
Ġn Ã¶rd
ĠMe ga
loy d
Ġdens ity
op ter
ish op
Ġcoach es
ĠK offer
Ġmotiv ation
j ing
ĠC ould
Ġspezial isiert
ĠC V
ĠL uther
ĠMan ual
ĠGemein der
Ġlimit ations
ĠTher m
ĠPar ad
Ġarg ue
W C
h arm
Ġweit gehend
Ġm aker
mark s
Ġf acebook
Ġele gan
Ġcy ber
laub e
Ġentertain ing
K arte
est and
.... ..
Man agement
Ġp y
ĠCond ition
Ġbe ef
ĠO ra
Ġunver bind
Ġharm ful
ĠEin ladung
Ġge fordert
Ġvers uche
Ġvo ted
Ġv oting
Ġun angen
ste il
Ġbesch reiben
s ome
Ġkey board
Ġ5 000
Ġversch w
ieÃŁ t
ĠProduk ts
Ġer f
eich ern
umb ai
ĠT ed
ĠV iol
ĠWar te
Ġg la
sch ritte
Ġsch ol
ist ant
atis ierung
ĠCom pl
Ġbeant wortet
âĢ¦ )
Ġgr id
Ġarbeit s
ĠStÃ¼ck e
Ġzust Ã¤ndigen
Ġ ).
ip t
Ġprofession ellen
Str ateg
Ġbet rieb
Ġdis ag
ĠOl iven
ĠRe chen
ac co
Ġgem eint
fre unde
Ġconf used
ĠEntw urf
ren zen
In vest
Ġcur ve
c ling
wer ker
ĠArbeit er
fre ude
Ch o
Ġoptim ieren
A Z
ber gen
ste ine
ĠAr c
Ġdre ht
ĠVo ice
Ġenorm ous
Ġ2 30
ĠDurch messer
ĠBel g
Ġsymbol s
H abe
re ckt
Ġpro mp
ĠVerletz ung
Ġle ak
Ġbeeinfl usst
Ġprocess or
App le
Ġcapt ured
Ġcar rier
12 3
Ġt ension
ĠH us
Ġzahl t
Ġgran ts
m ap
ti de
druck s
ĠFres h
ĠDi Ã¤t
ĠBlo od
Ġexec ution
Ġdiss ertation
ĠPrÃ¤sent ation
ĠI owa
Date i
Ġfran chise
Pf alz
ĠFlor ian
ĠConsult ing
ĠBeam ten
Ġ Ï
Ġgener ous
Ġle af
ap se
ĠEx port
reg ister
kap ital
the y
eign et
Ġpsych ological
Akt uelle
Ġcul tiv
Ġschein bar
Ġwer d
ĠKl oster
age ments
ĠI F
Ġge heim
Ġcal ories
it ations
t ype
ĠL abel
Ã¶n nen
Ġdete ct
Ġries ige
ĠFlo or
D id
ĠBl Ã¤tter
ster y
bet en
ĠFlex ibilitÃ¤t
in ction
Stra ÃŁe
Des pite
Ġwild life
Ġretail ers
ĠBundest ag
b sp
Bl ue
V erk
ord nen
ĠMann schaften
ĠR end
In t
ĠBuch ung
lÃ¤nd ische
e ted
ĠP ixel
ĠAn fragen
ĠLiefer anten
lie be
ĠKn ie
Ġschwer er
ĠKÃ¶nig s
Ã ¸
ĠL Ã¶s
ĠSie d
ĠY ellow
Ġsal ad
Ġsp Ã¼ren
AR K
ĠMax im
ĠFel ix
G ut
is an
Ġkon stru
m ie
Ġw ander
Ġ17 0
Ġauthor ized
Ġhor r
Ġpod cast
ĠKreativ itÃ¤t
Ġ24 0
Ġed ges
quar ters
Ġberuf lichen
Ġbrow se
A ktiv
Ã¤l en
Ġread ily
ĠForder ungen
Ġverb esser
Ġinvol vement
Ä ±
ĠSch ra
Ġdis orders
Ġass ured
Techn ologie
ĠN ich
ĠAuf ruf
ĠChr isten
Ġmass iv
Ġbeau tifully
ar is
esch ool
erv es
Wir d
ĠEv alu
ĠAmer ika
le uchte
tik a
Ġcomple ting
Ġak tiven
Ġander erseits
ĠDel ivery
t v
sch wer
ĠDe pot
ĠTit an
p ots
er ted
itz ung
Ã¤ss er
ĠM az
ĠF azit
che f
usch el
ge fÃ¤hr
ĠTre ff
us chen
ĠKr isen
ĠNe g
Ġrein igen
Ġaccom pan
Ġer zeugen
Sp ecial
ãĢ ĳ
Ġarrange ments
ĠspÃ¤ter en
ĠBlo om
o T
ĠM Ã¶glich
fÃ¤h ige
f unnels
Ã¼hr ung
ĠPat ri
ĠZe ugen
ven ted
lin ing
Ġspeak s
stud io
Ġinc orrect
Ġnews letter
Ġtim ing
Ġbeob achtet
r er
Ge gen
Ġmedizin ischen
Ġbare ly
Ġst ieg
est on
ik ipedia
ĠBe ar
Ġgesch le
Ġverein bar
ĠAn sonsten
Ġcontrib uted
ĠBewer ber
onym ous
H aving
Ġeinzig artigen
Ġto wer
Ġber u
ĠA BC
Ġg onna
ĠH os
Ã¶ff el
ess a
if ferenz
IL D
bu ild
ĠSch uss
Ġqu it
ĠH end
Ġcontra ctors
ĠB Ã¶rse
ĠB ienen
Ġm ounted
ĠGast ronomie
Ġgefe iert
L es
g old
n ik
Ġre chte
op ing
ĠWeiter entwicklung
ĠCertif ied
se kten
Ġ19 20
ĠÃľ bung
Ġfrag te
Ġgaran tieren
ur d
ĠC os
ĠLif estyle
Ġmar ijuana
ĠVerein igten
Ġt al
ro hr
Ġguilt y
o ire
ĠFrei will
Ġnur se
bed ien
ĠKra mpfadern
sp rechen
schn itte
ĠPh D
Ġg ains
quar ium
ĠZ DF
ĠAuftrag s
Ġout doors
Ġak tive
Ġleg acy
Ġwert volle
ĠgewÃ¼n scht
ĠS ad
zus agen
ĠS ne
Ġ7 50
Ġdopp elt
Ġbelie fs
ĠAir lines
Ġmeasure ment
ettbewer b
r iel
ĠD SL
ĠArg ument
E lekt
ĠR iesen
ĠPort land
ra k
ri o
M O
i ode
Ġbe il
Ġan gel
Ġherr scht
B este
Å ¡
Ġor ch
wer tet
Ġnic ely
Ġy e
ĠStre ifen
ier bar
ãĢ Ĳ
ĠI R
est ation
Ġerreich te
Viel en
anc el
s ection
ĠBl ues
rÃ¤n ke
Ġweak ness
ĠD os
Ġcou ples
ĠZuk unfts
Fig ure
Ġvorauss ichtlich
Ġk an
Ġsh elter
Ġapp liances
Ġgre ift
Tipp s
ĠN ull
ĠFl asche
Ġproduc tive
under te
M c
igen ous
bed Ã¼rf
Ġange legt
) (
Ã¶ ll
re ht
gra duate
S B
Ã ¥
mod elle
Ġexc itement
ĠR T
Ġsec ured
ĠGrow th
Ġt ar
ide en
hip s
Ġvac uum
ĠPhilipp ines
igran ts
Ġdram atic
y t
ĠT onnen
Ġpassen gers
Ġchem istry
N on
Ġa u
ĠGer ne
IG HT
ĠE ich
ĠPosition en
Ġ( *
ĠStadt teil
ĠView s
Ġan gest
... )
ĠNeben wirkungen
Ġcra fts
ĠMiss ouri
figur ation
F ern
Ġt ires
ĠTrans formation
h allen
Ġfre el
AS E
ĠM I
Ġb ind
ĠM T
ab elle
Ġjur isd
Ġlie bt
ĠHeil igen
ĠWelt meister
ĠA GB
Ġsett led
ĠFollow ing
ĠK un
ĠEin haltung
Ã¼n kt
Ġautom atis
Ġsubsc rib
ĠSe en
ĠSp rÃ¼
ar tiges
Ġbe zogen
ĠFil ms
ĠHon or
Ġweap on
ĠT ennessee
Comm unity
ĠB esser
ĠG L
sch ool
Ġumfass enden
raul ic
Ġd imensions
Ġverl or
ĠQuart al
ĠBe leuchtung
ĠTe ig
Re chts
B ed
W erk
l t
ch ing
ĠEurop Ã¤ische
ĠOrgan ization
Ġklass e
astrop he
L in
le der
Ġp iano
Ġsol ches
Hol stein
y outube
ä ¸
ĠS ons
ĠDar auf
ĠS F
Ġp ig
ib bean
Gesch Ã¤fts
Fin ally
ĠC elebr
Ġnach ge
land o
ash ing
or ms
Ġf iscal
Ġpres erve
bring ung
i ah
ĠVer f
ĠH ood
ĠR TL
IF A
ĠPhilosoph ie
D ok
Ġal ike
Ber eits
ĠAustral ien
Ġpermit s
ĠIn halten
Ġb its
ĠPl ans
laim ed
Th omas
Ġpartic les
Ã¤ hle
ĠGegen stÃ¤nde
atin um
s u
Ġold est
ĠHeiz ung
Ġbrit ischen
Ġspecific ations
ĠTre ppen
ĠK ay
Ġpre mier
Ġredu ces
Ġsimultane ously
ĠLe ib
ĠTe ll
Ġerk unden
ĠPhot ography
Ġscholar ship
c ity
Ġange meldet
sch aden
ĠVert riebs
Ġd az
ĠS ell
me ier
Ġgen annte
ĠNatur schutz
Ġw Ã¶ch
ĠK orre
ĠN ash
ĠC rit
ĠIn telligen
Ġcomp osed
Ġrec ycling
Ġprom ised
ĠW Ã¤hlen
Ġgeb unden
ĠP i
ver teid
ous es
ĠNe um
ĠHawai i
le hnt
Ġstake holders
Ġauf w
Ġn Ã¤
Ġra ces
ĠÐ ²
Kategor ien
n och
f ron
ĠK id
ein heiten
Ġpay day
ĠÃ¼b lich
D isk
Ġgene tic
S W
ur u
Ġse ch
Ġgekenn zeichnet
ad bach
ĠTur k
oc ated
or ca
Ġr ufen
ĠEr fÃ¼llung
Ġdiam eter
Ġdialog ue
un fall
ĠA u
ion en
ĠR ie
Ġsch we
Ġappar ent
ĠOk lahoma
in ent
weil en
Ġaus gesetzt
ĠStatis tik
Ġtr ies
ĠS ay
ĠSp o
str ich
ĠSn ap
ĠLe ber
Ġar bit
ller y
sk y
ĠTem ple
Ġwish es
ra h
Ġhervorrag ende
Ġin du
ĠSt iefel
ĠsÃ¼ ÃŁ
Ġattemp ting
ĠR Ã¤um
200 1
ĠVeranst alter
ann y
anz er
Ġdestroy ed
ĠAutor in
h abe
Ġin ev
ĠF ron
em als
w itz
ĠDet roit
ĠVerein barung
ĠNieder lage
ĠJenn ifer
W irt
Ġs atellite
ĠVerletz ungen
I d
Ġaccept able
ĠP urch
ĠAn stieg
V R
Ġrece ives
ov olta
Ġgen es
ha ust
Ġklein eren
Ġanalys ieren
ch ancen
Ġdem o
ick te
dition al
Ġend less
Ãľ R
Ġqu ad
ĠVor schlag
ĠS QL
ĠPar liament
ĠRechts an
Ã¤ hn
ĠV ista
Ġtechn ological
Ġnob ody
M otor
f und
ĠSch icht
H C
ĠB om
ĠDr ug
Ġimplement ing
Ġw ahre
ĠR C
Ġprodu zieren
Ġart istic
ĠB ibel
ĠR y
pra xis
verm Ã¶gen
ro tt
Ġprote ins
Ġbur den
Ġper mitted
ĠRec ord
Ġdro ps
Ġg all
Ġar ranged
ĠT ieren
ĠR ules
Ġgra u
te c
Ġabge geben
Ġexter ne
Ġbet onte
mm et
Supp ort
K rise
sen al
ĠB ist
Ġeinz eln
Ġgegen seitig
Ġmed ications
Ġfr ische
fang s
ĠR ucksack
Ġver ify
ĠHeidel berg
ĠIn telligence
anz lei
qu al
ĠPrÃ¤ senz
Ġcompla ints
Ġd icht
K unst
N L
Ġthe ater
Ġout er
Ġsupp ress
Ġerled igt
ĠD ak
Ġc igare
Ġbut tons
Ġepis odes
b unden
r ung
iele feld
Ġniedr igen
ar re
w eiten
Ġde press
ĠRet ail
on ies
Ġe uer
Ã¼ber greif
ĠAll gemeine
ĠEinsch rÃ¤nkungen
ĠV ancouver
Ġde lete
ash es
S outh
U sing
ĠC ong
Ġauf weisen
Ġcomp ly
av al
Th ema
a ine
v ation
ĠF DA
Ġpe pper
Ġhal be
ĠRoll er
we ichen
Ġpr iced
ĠGe halt
Ġam pl
Ġcook ed
ĠAus blick
aut o
Ein fach
die weil
Ġvor Ã¼ber
ĠD Ã¼
ĠAn imal
Univers itÃ¤t
cklen burg
ĠDe ko
Ġvers atile
Ġbe ans
Ġcar ing
F ast
h Ã¤ngt
ĠPro gress
ĠC row
am ins
au gen
ry ing
Ġsl ide
ĠPlan eten
ĠIs ol
ho fer
Ġmoder ate
Ġver Ã¶ffentlichen
ĠFre m
ad vant
Ġsch aff
ĠBe yond
Ġke en
lehr er
em pf
ĠBet ten
ĠG ard
ĠAnwend er
s al
ĠHe ck
ĠLu ke
Ð ´
ĠB aker
ĠZ wie
ĠAn bietern
Ġlist ings
ĠKind le
Ġums etzen
Ġher ein
Ġgl uten
Ġfil ters
Ġoccasion ally
Ġschrift lich
Ġmyster y
ce ive
Ġer richtet
ĠGet ting
ĠBon i
ĠFact ory
an schluss
anz ig
rech ner
opp ers
Ar tikelnummer
ĠDokument ation
c ap
n immt
Ġpo etry
K ein
ĠPil ot
last ung
ig ue
ĠW oll
Ã¶ bern
ein stellung
Ġso g
ĠSch Ã¼tzen
Ġout fit
Ġmil itÃ¤r
Ġphys ician
Ġmix ing
ĠBene fits
Ġan halten
wohn ern
ĠDruck er
ĠSU V
op tion
ĠM isch
io x
Ġtransfer red
ĠÃľberrasch ung
Ġcult ures
ĠW ITH
id i
k leid
Ġge omet
iv ia
ĠInsel n
le ge
am ik
ott es
Ġcolle ctive
Ġwahr en
Person al
ink er
unter lagen
ber e
ĠSch Ã¤d
Ġanalys iert
Ġphot ographer
Ġcoup on
ĠS timm
Ġle ct
Ġgew iss
Ġbeg un
ĠRe present
T urn
ĠH ermann
inc tive
Ġsett le
vol umen
Ġst ays
ĠA W
ĠSpr ung
Ġstim ul
Ġh ired
ach ers
ĠHalb zeit
âĢ ¯
Ġsh ade
imm ers
Ġseit ens
Ġverein bart
Ġaud it
b em
Ġbrow sing
Ã¼r tel
ĠWill en
Ġn uts
ĠM Ã¶n
Ġman gel
Ġbesch leun
Ġoptim ization
Ġwal let
ĠKl icken
ĠFÃ¼ ÃŁe
ĠMuse ums
Ġzerst Ã¶rt
Ġjun ior
ess ed
ĠKn ob
Ġcabin et
Ġfund ra
ĠTes la
ger Ã¤ten
ĠWh it
Ġbo ots
Ġalgorith m
G lobal
s ize
ĠD elta
ist ischer
Ġregion alen
aceu tical
Ġun ited
Ġro l
ĠPut in
I EN
ĠM ental
abe ll
Ġsch ien
ĠSte ven
ĠCo oper
ĠFor st
ĠS weet
ĠC ass
Ġre ine
ĠZ ins
tz en
Ġf rank
Ã¤t te
ĠArchite kten
R und
Ġvorbe halten
ĠÃľber prÃ¼fung
ĠD rag
ĠRe le
Ġshort ly
And re
ĠerÃ¶ff nen
Off ice
ĠAn nahme
Ġsu its
Ġb ol
ĠI BM
Ġsn ap
bas is
Ġspann enden
Ġvern Ã¼nf
ĠClean ing
G EL
k ore
ĠM AN
erv ers
ĠVerfÃ¼g barkeit
Ġver Ã¤nder
ĠOb jekte
deutsch e
Ġden ied
ak u
ĠWe hr
Ġrestric ted
ĠRechn ungs
ĠAgr ic
Ġn ail
ĠM IT
Inter view
Ġst yl
utt le
Ġvari ations
Ġdisku tieren
k uchen
ĠT oten
Ġle mon
ĠT SV
Ġges ichert
ĠFurn iture
Ġo verseas
ĠW Ã¼rz
ather ine
Ġc la
ĠBl itz
vis ions
10 1
Datenschutz erklÃ¤rung
Ġtraur ig
ĠA pfel
ĠL ip
ĠL uz
Ġent ity
Ġg ang
off ice
P od
ĠS ession
ĠL ounge
Ġauf einander
Ġ198 3
Ġachie vement
kre bs
H ot
che ll
Ã¤f ten
ĠEngine er
Ġfro zen
veranst altungen
ĠS ustain
Ġcomp ound
M Ã¼n
ĠD Ã¤n
ipp i
Ġgener ic
Ġaccept ance
c ers
ar ina
Ġf ut
ĠL uck
ĠO ri
Ġinter pretation
g ess
Ġp ear
Ġat m
Ġup set
ĠCh elsea
Ġfil ing
Ġport al
produ kt
ĠjÃ¼n ger
ĠChristi ans
p ed
Ġ( +
if ik
Ġprom ises
ĠFrank furter
Ġs amt
lie ger
Ġwhere ver
Ġverm eint
b ike
Ġw rap
st atus
Ġex ch
Ġenthus i
T alk
m Ã¶bel
Ġw age
ĠBe cken
ang o
Ġfeed ing
Ġcalcul ated
Ġdeaktiv iert
Ġlegitim ate
W inter
Ã ª
fÃ¼ llt
Ġproduc ers
the tic
ĠOsc ar
Ġcar ries
ot ype
Ġlang leb
Ġref used
Ġgarden s
it arian
Ġsp oken
Ã¤us chen
ĠKan ada
ĠET F
ĠfÃ¼ llen
ĠFakt or
l ampe
Ġlok ale
el ve
ĠGÃ¼ ter
Ġgeb ucht
h ig
Ġs olle
Ġs ized
ĠPrÃ¤sident en
Ġm arch
ĠA F
Ġpost er
risik o
Ġb onds
Ã¼ ter
Ġer mitteln
Ser ver
Zur Ã¼ck
f aser
Ġsh ips
ern ame
Ġany time
ĠPh ill
ĠMerk male
" ),
Ġhal ben
Ġtour ism
eli hood
afr ika
Ġdem okrat
An n
imm y
kur se
Ġent ries
m esse
Ġv ine
ra ct
att ing
ĠSche iben
ill on
Ġbesch rÃ¤nkt
haf ter
Ġdamal igen
ĠPartn erschaft
Ġben ach
Ġachie ving
s ysteme
Ġk ochen
ree ce
D eine
k urr
ein igung
ĠRe pl
Ġdiffer enti
f ot
Ġmin erals
ĠAbend essen
m or
h at
ig ers
land es
stre ifen
uf a
Ġzu gesch
Ġab gerufen
Sch ul
leb nisse
ĠS EC
ĠDisc over
ĠIndones ia
ĠW onder
ĠJ et
ĠvollstÃ¤nd ige
ĠD oor
ĠC rew
Ġrep ar
Ġinstall ing
ĠErd be
Ġf uer
od ed
St ream
Ġidentif ying
ĠMas ters
ble ib
sh ine
deutsch land
ĠErinner ungen
wÃ¤l te
Ġpre ced
S tellen
ĠA partment
H ab
i anz
Ġk reat
ies ter
Ġcon vin
wend ig
Ġtradition elle
ĠA ur
ĠVor haben
Ad vert
ĠSens or
ĠBr ut
por ter
Ġwider rufen
ĠTit le
H am
l iter
id ity
ĠKont roll
Ġcelebr ated
ĠBr ight
ĠResp ekt
Ġto y
ĠOlymp ic
Al tern
Ġinf ections
Ġpl umbing
Ġgro ssen
ĠPor sche
a al
es telle
aus stattung
n te
Ġm elt
ĠV Ã¶
Ġbi ological
ĠKle ider
F ood
l ate
Ġl asse
ist ol
Ġexce llence
in vest
le ans
ĠBes ides
ĠVorsitz ender
ĠChair man
D O
em bers
ĠSch ein
h ier
Ġres cue
bes itzer
kont rolle
B ased
ĠVer w
Ġstatt dessen
Ġther mal
Ġniedr iger
z ut
ĠLe o
omp son
ari os
Ġbeach es
ie ller
Ġall dieweil
ĠgroÃŁ em
S ave
ĠCh art
Ġdel ighted
Eng lish
voll es
Ġprosp ect
Ġline ar
Ġt ipp
am an
ĠChar lie
Ġcorpor ations
R Ã¼ck
Ġ à¤
Ġste he
tik er
ĠLie der
ĠJon athan
ĠDes wegen
Ġtreat ing
ĠMc K
ĠQue ens
Ġwundersch Ã¶nen
ent est
ĠEin bau
Ġneu em
ĠAsp ekt
OV E
F ort
r iss
Ġpro priet
bie ters
Ġglob alen
Ġrelax ed
fol gung
Ġpass age
ĠElekt ronik
Ġdank bar
cy cl
ID E
tim ore
ER T
down s
ĠVerantwort lichen
is l
othe ke
ĠTe uf
ĠAl te
Ġbed ro
ĠProf it
ĠVerhalten s
d rucken
ĠGeheim nis
Ġf oss
ĠC E
ist rat
Ġam id
ĠHe at
geb nis
ĠJust in
ĠDie ter
Ġkurz fristig
Ġtruck s
ĠsorgfÃ¤l tig
T ex
m Ã¤nn
ĠDis ziplin
ĠR V
Ġcont roller
inder t
Ġdiscip line
ĠL otter
Chris tian
ĠTai wan
l iest
Ġletz tes
Ġbesonder er
t ages
ad ays
lie gende
ĠOff er
ĠKr is
Ġidentif izieren
ĠGer ichte
arbeit s
Ġstra in
liefer ung
u ard
Ġun fortunately
Ġsustain ability
Ġdefe at
B T
ĠMan che
Ġhinter her
ĠGener ationen
ĠIdent itÃ¤t
Ġfre ige
med iate
Ġsand wich
ĠGep Ã¤ck
ĠL id
Ġcom men
reg ungen
Ġschme ckt
ĠAr thur
ĠSpiel tag
Ver hÃ¤ltnis
ĠSk ills
mÃ¤ÃŁ ige
verb ot
M ass
Ġcom edy
Ġmerch andise
ĠNavig ation
h aven
ĠR unden
se kret
ĠAl ways
Ġbr ick
Ã £
ĠD ial
Ġder ived
ĠC ad
Ġinsp ire
Pl attform
ktiv itÃ¤t
ĠWies baden
ed es
ĠZe llen
ĠSchn itts
Ġum gehend
on den
Ġvibr ant
stra fe
ĠBel ow
Ġneg ativen
oth y
Ġsatisf y
M ess
or o
Ġorgan isieren
Ġresist ant
k linik
ĠC afe
Ġdis abled
hr ung
zentr ale
Ġverein fach
Ġen abling
amt es
ĠA merikan
ĠDeutsch er
Wh ite
wor fen
Tag ged
veranst altung
p Ã¤dagog
at ility
ĠW ant
Ġres il
ser ie
ĠHand ball
ĠGegen wart
Ġl ob
Ġl ips
Ġges perrt
r ons
Ġw olle
Ġaus sch
Ġpet ition
Ġbl ame
Ġqual ities
Fra ge
> <
S ur
ĠF ine
form ing
Ġexpect ing
Ġvari ables
c odes
ĠSch lÃ¤
ĠOptim ierung
B ilder
Ġdesign ated
ĠWar enkorb
Ġgee ignete
Fer ien
Ġrequ iring
Ġze igten
ĠHealth care
s n
Ġa ver
ĠMÃ¼ he
Ġdis ability
ter min
ru pp
Ġdirect ors
ĠLe ader
Ġste tig
Sch utz
Ġempfehl enswert
Ġk ost
Ġex akt
Ġsac rif
Y S
Ġsl ip
Ġfit ted
ĠBedien ung
L ang
Ġb inding
ge funden
ĠverfÃ¼g baren
ĠP ages
Ġro d
ose x
Ġ198 2
3 50
Ġs oup
Ġinform ative
Ġch ap
ĠY OUR
ĠUnivers itÃ¤ts
ĠMie te
E p
Ġpres idential
er d
ink l
Ġbank ruptcy
Ġg host
Ġattra ctions
av ed
Ġgra in
ĠB ogen
ĠV ehic
ether lands
Ġpick s
ĠZ ell
Ġeng lish
ĠSy mp
p x
Ġout let
ĠGra z
AM E
ĠE co
ĠN elson
Ġpeace ful
gesch ritten
ĠGu est
Ġm akers
Ġv inyl
st at
ĠgemÃ¼t lich
H ilfe
ĠR oland
Ġfahr enden
Ġf ence
ĠD L
ic ating
ain less
Ġmar ine
Ġgem eldet
Ġste ady
Ġsc rap
ĠKent ucky
as ive
ĠSch ed
Ġwatch es
Ġgepl ante
m orgen
Ġ12 8
bild et
Ġwesent lichen
Ġlight weight
ĠWÃ¼n schen
k tive
ĠBet riebe
amm ed
vent h
Ġerleich tert
N atur
s ign
ĠK ard
ĠM ol
ĠKrÃ¤ uter
M ails
iz it
ĠKind heit
Ġneighb ors
tre ffen
Ġoffer ings
ĠKlein anzeigen
Ġaccom p
Ġmeasure ments
ĠÃ¶sterreich ischen
N O
Ġres id
ĠMÃ¤r chen
ĠwÃ¼n scht
prof ile
am ment
uss ions
ĠAl ice
ĠAk ademie
ordin ator
Ġk lin
ĠN othing
Ġpr on
ane ous
ĠJew s
at ibel
ir che
ĠUt ah
Ġgem essen
Ġbar rel
heiz ung
Ġhoh es
ok ia
Ġfal schen
ĠP oll
ĠKlim aw
ĠBege gnung
ĠD ump
ĠW inkel
Ġangeb racht
Ġheu tige
ĠN ort
Ġen roll
Ġrol led
Ġl ernt
ĠMas ken
ĠTr ennung
ĠPoly ester
Ġdif f
ĠmÃ¼s st
Ġvar ied
ie bt
ag anda
Ã¤s ent
Ġheraus rag
ĠWÃ¼r mer
ĠTe ppich
Ã¤n omen
Ġadd iction
ĠNE U
ĠSum mit
ĠSch r
ĠAl aska
Ġint ent
Th emen
D azu
K ultur
Ġdem ent
Ġprov ince
Ġtable ts
ĠG ary
ĠHigh way
ĠImm un
ĠzukÃ¼nf tig
ĠInstitu tionen
ĠD FB
ĠTe a
re gen
Ġbe zahl
ac ent
Ġletz tendlich
Ġrece pt
Ġcondition ing
ĠWag ner
ie v
ĠRegen sburg
Th rough
Ġsignific ance
ĠAuftrag geber
kt oren
Ġcount less
Ġwichtig es
ĠÃ¼berrasch end
Ġgel Ã¶st
Ġprofit able
ĠRog er
em ade
ĠK ohle
so ftware
Ġger inge
Ġposs ession
Ġfra u
ĠBesuch ern
JÃ¤hr igen
Ġkontroll iert
Ġeth nic
K onto
ĠA hm
ĠC abin
ĠDis co
ĠCons umer
Ġg alt
ĠAn kunft
urf ten
ĠBege ister
ĠReihen folge
ĠSan ierung
Ġirgend einer
grÃ¼nd en
is ons
Ġange wiesen
ĠStad ion
ĠAmb iente
Ġliber al
a iled
ĠN est
Ġpoll ution
ĠbegrÃ¼ ÃŁen
Ġf ed
ĠBoch um
ste henden
Ġmen schen
D M
Ġbe auf
ĠBeg leitung
Ġcryptocur rency
g st
amp a
ĠPart nern
Ġimm igration
Ġst upid
od ox
ep s
ĠMar vel
ĠPoten tial
bra cht
ĠReich weite
pro blem
Ġhand led
Ġobtain ing
ĠTransp arenz
ĠH unger
gem Ã¤
Ġausgew Ã¤hlten
ĠMeld ung
H inter
ĠZ elt
ĠSk in
ĠA uÃŁ
ĠE igentlich
Ġexis tieren
P age
ar in
ĠK W
Ġsch ade
ĠDe an
ĠHor se
ĠBundest ags
qu est
ĠEin nahme
ĠDe posit
erk rankungen
Ġtown s
ie tet
Ġcomp assion
ĠdÃ¼r ften
ĠFrÃ¼ chte
ff ekt
vel and
ĠWith in
ĠD ES
op ed
EN S
ĠB ring
etz er
ĠFl ach
Ġfla v
ĠGeh Ã¤use
ĠW orth
ess els
Ġro utes
Ġstra p
gro up
ĠTÃ¤tigkeit en
Ġt ender
opp elt
ĠRe iÃŁ
Ġreg ime
Ġbene ath
Â» .
ĠSc ript
ĠProf is
ĠFlÃ¼cht lings
ĠGenehm igung
ĠC op
AN K
Ġint ake
ĠH unter
ver ter
ec ard
ĠPl attformen
A ccess
G ames
ish a
ĠJul ian
Ġgrocer y
Ġmehr mals
ĠAb ra
Res p
ĠC ob
Ġlog ic
ĠRem ote
ĠOver all
er ein
Ġspe kt
Ġgute m
Ġrefle cts
ĠCommun ication
ĠAufent halts
f acebook
h Ã¤n
Ġcon cluded
ĠHer itage
Ġlock ed
Ġg ad
ĠGesch w
ĠklÃ¤ ren
ĠA ld
ĠBer gen
Ġcou ch
ĠIndep endent
ĠL odge
ag te
Ġgain ing
r Ã©
sche ibe
ĠIsrael i
Ġp as
Ã¤ ule
ĠR ow
Ġmanufact ure
Ġr utsch
ĠLand schafts
kle ber
Ġmand atory
st ufen
Ġzu recht
Ġinc omp
Res earch
Mark e
Ġt ong
ĠAl an
Ã¤ch eln
ĠCom merce
m ill
och t
Ġdownload ed
Ġdro ht
ĠIslam ic
ck ten
ĠEin nahmen
Ġbreat hing
ra ys
Ġre vers
Ġauf bauen
Ġ' '
Ġentreprene urs
V I
ere cht
enk ung
Ġpolit isch
S un
ok o
iss ance
Ġknowledge able
onom ic
ĠHous ing
ĠG uthaben
ĠWalk er
ĠHein z
Ġk le
Ġs its
Ġun p
y en
ss el
OR D
Ġterm inal
Ġveter an
ĠSt abilitÃ¤t
lin ary
Pro gram
Ġexpl oration
ĠT schech
ĠH ang
ĠK urt
be hÃ¶rden
ĠJournal isten
ĠDiskussion en
m ain
ĠAuf nahmen
Ġsc ulpt
Ġvis a
ĠQu ant
Ġign ore
Ġdro ve
ksam keit
fol gend
AS H
Ġw ager
Ġang ere
ĠPrem iere
ĠStoff e
Ġdisch arge
Ġver teilen
og nis
ĠEin z
ĠMobil funk
b rÃ¼cken
ĠT ante
Ġgesch nitten
ĠBr uch
ĠKlein en
ĠPl ate
bÃ¼rger meister
Ġgesetz liche
ĠZuf all
Ġvers uchte
Ġrel ate
Ġb achelor
ĠBew usstsein
Ġg arn
ĠMw St
ĠAbs timmung
olo ge
ad resse
Ġcry stal
ĠExpl orer
Ġpropor tion
D B
ĠH av
ful ness
Ġsupp orters
ĠKap it
Ġf este
ĠF E
ĠM ent
ĠN T
ĠRep orts
ĠMem ory
f ungen
Ġan schlieÃŁ
ĠEntz Ã¼nd
Ġste uern
ĠInd eed
Ġbewer ben
Ġwundersch Ã¶ne
ĠBeweg ungen
Ġcl uster
ĠNach weis
pro be
Ġroy al
f es
is ierungs
upp e
Ġz Ã¼
Ġa uction
ĠK ochen
ĠFl aschen
ĠEv olution
ĠTok yo
Ġprosp ective
B oth
k ategor
Ġthere by
Ġclin ic
ĠVolks wagen
hers age
S Ã¼d
ein richtung
ielaut omat
Ġc ust
Ġdec iding
ant in
Ġsicher zustellen
Ġp ills
steuer ung
Ġoblig ation
Ġaus ged
Ġrel iability
gl Ã¼ck
ĠS i
th ere
________ ________
Ġw ing
Ġun limited
Ġver leihen
ĠVor schlÃ¤ge
ĠKlÃ¤ger in
Ġl ying
Ġre loc
Ġfor ums
Ġop tical
ĠNahr ungs
Aller dings
d ies
Ġd urften
Ġst opping
ĠÃ Ĺ
iden cy
ĠSch Ã¶ne
ĠAuf bew
V oll
ir chen
ĠIn k
igh ters
G leich
N T
ĠE aster
Ġexis tiert
uis ine
Ġh ass
Ġsusp ension
ol ph
ĠDe cke
is abeth
Ein ige
Ġfund ed
ĠverlÃ¤ng ert
ĠAl ong
r ill
Ġd aten
Ġm aj
Ġph osph
Ġmechan isms
ĠBlock chain
ĠT Ã¤
Ġac res
We iÃŁ
Ġdeterm ining
Ġkrit isiert
ĠPh ant
H aben
c os
Ġbe enden
Ġcare ers
Ġaff airs
Ġdiscuss ing
ĠWol ken
ĠSh irt
ĠHum or
ĠClick funnels
ĠFin anzen
Ġsepar ation
Ġdivor ce
at oes
ĠHier zu
Ġinvest or
Ġt ile
ĠG alerie
Ġval ve
Ġmet als
ĠFire fox
ar ound
ĠVer stÃ¤r
ĠZwe cken
prech end
B au
ĠUhr en
Ġt ent
re ll
Ġnach ts
ĠAugen blick
Ġbehaup ten
Z E
ĠSie mens
ric ts
ĠP VC
Ġst ones
Ġsch uld
ĠFot ograf
Ġin tim
ĠB akterien
Ġtro ops
A f
G od
ĠGe bie
Ġsqu ad
Ġm ira
ĠD al
anz t
Ġpublic ly
Ġwissenschaft liche
ra ge
mb and
ĠM omente
Ġwh erein
ĠEmp fÃ¤nger
ĠJack e
mer kt
ĠAm y
Ġverz ichtet
apeu tic
Ġb ron
ĠT auch
ĠN i
Ġge brauch
Ġdo zen
Ġsu ited
Ġlo ading
ĠMeer es
Ġis lam
Ġsh orter
Ġexperim ents
t ax
or tive
al teten
ĠM aj
Ġso ap
tim eter
sche iben
c ount
ĠK Ã¤lte
Ġr ational
th aus
ĠAus flug
In formation
ĠL CD
Ġversch l
Ġcour age
Bes onders
are l
ĠÃĦ gyp
Ġs our
hn ess
akte ur
Ġ ic
Ġe ager
hm a
Ġint rig
ug u
ste dt
Ġcap tain
ur l
Ġde ar
ĠAl fred
E lect
ĠHow ard
ausch al
ĠÃ¼ber geben
ac les
Ġpat ent
ĠChrist us
ĠNational park
Ġbott les
ĠNote book
Ġamb ul
st ad
Ġinv ested
ĠSw itzerland
ĠC ards
Ġacc redited
ĠMinister prÃ¤sident
wechs elt
Ġicon ic
ĠH orm
kre uz
A W
Ġback ed
s ized
Ġrece iver
ĠZiel gruppe
ĠSchÃ¼l ern
3 60
tember aub
ĠBre xit
ĠKamp agne
g Ã¤ngen
schein end
Ġunterschied licher
ĠBru ce
U ser
ver bind
Ġbes ter
c end
et he
Ġrem ed
Ġangegeben en
ĠVol umen
Ġre cess
Ġqu est
ĠBer ge
Ġzeich nen
Ġanzub ieten
Ġsh ield
ig o
pp ers
Ġj ail
m ien
ĠIntern ationale
Ġmer ken
im eter
ĠLe ver
Ġgel tend
Cl ub
verletz ung
ab i
Ġgradu ally
la p
Ġab ger
iz a
ession al
A bst
ĠGes etze
ĠKÃ¶l ner
verband es
Ġbu ck
Ġmon etary
bre tt
Ġfram es
ĠTob ias
Ġvar iation
Ġclass ified
Micro soft
D L
ad ows
uk tion
ĠOpp osition
ĠAR D
ĠG round
ol ia
Ġ10 5
Ġberech nen
ĠRus sell
Ġmag net
ĠAdvent ure
ĠBegrÃ¼nd ung
Ġkl aren
ĠCry stal
ĠD iss
Ġfun nel
Ġverurs achen
Ġla undry
vier tel
Ġcompr ises
ĠC urrent
fahr zeuge
ne um
ĠWe ather
ĠMan uel
Ġ197 9
brÃ¼ cke
nd rom
ĠMar athon
Ġt y
Ġthe atre
ĠMittel n
ĠOnlinesh op
Ġconvin ced
W H
in form
B and
ĠK letter
ant es
sh ot
apt ops
ro us
ĠL IN
og ramm
Ġinteress anten
Ã ´
Ġb au
as ures
ik ro
Ġres ign
Ġra mp
Ġins ert
Ġ _
Ġconcentr ate
p ng
r ige
Ġges unden
Ġeas iest
m otor
ĠVerbind ungen
et ite
od af
Ġpe er
. (
ĠF ut
ĠOr leans
ĠB rie
Ġs onn
Ġs umm
Ġc osme
ĠG ulf
ĠEr wer
Ġprote ctive
Ġhor ror
W ow
d imension
re iter
ĠS auna
aut omat
ĠTeilnehmer n
Ġinn ere
b ane
ec raft
ĠComm ons
G ame
b lau
s ucht
re et
wid th
Ã¤ umen
ra gt
Ġerw achsen
Ġcontinu ously
1 30
O H
bie tet
ĠUl timate
Z usammen
f ile
stra hlung
K Ã¼
sch ild
ĠVor bild
V E
hn ten
ĠDe ll
ĠHel m
ĠBeschÃ¤f tigung
B enz
Ġj unk
Des cription
Ġvers p
leben s
rim ination
Ġagric ultural
ĠB ibliothek
ĠD ental
ĠP HP
men gen
Ġfig ured
ĠCar ibbean
zwe ck
ĠInsp iration
wander ung
ĠBet a
Sp orts
ĠNot es
Ġvirt uellen
ĠC hl
Ġaufge hoben
Ġd iver
Ġtr im
ĠAl pha
Ġearn ing
Ġgib ts
Ġbest and
br is
ĠMobil itÃ¤t
u cc
ation ally
ĠU P
Ġspiel er
Ġzwing end
ĠP un
tif ication
Inf o
ĠK el
Ġseit dem
H al
Ġb ayer
ĠGesch irr
ĠMas ke
f ull
ie ve
Ġst Ã¤dt
Ġsh aped
ina he
Ġgrundleg ende
w achsen
Ġth irty
g ast
in tern
Ġt ears
Ġr uling
ĠSy rien
Ġl obby
ĠBo sch
Ġdeterm ination
D ank
as is
Ġpers u
ĠMr d
12 5
ĠE IN
ĠDarm stadt
ĠS uchen
Ġfl Ã¼ss
ĠEv a
ĠRos a
Ġengl ischen
ĠRober ts
Ġhe ir
Th ose
Ġhand ful
ĠTut orial
grund lage
Ġwithdra w
j ournal
Ġpassen ger
ĠBack up
ĠIr gend
stud ien
ĠPub lished
Ġm eter
Sch Ã¶n
Ġries igen
Ġe uren
Ġr ival
pump e
Ġembed ded
ĠPfl anze
ĠJ en
Ġsh adow
ĠGra ce
Sto ck
ĠG P
Ġpro s
Ġchurch es
ĠWhe el
Ġrelev anten
am on
Ġper ception
ess in
Ġversch oben
Ġ198 1
Ġapart ments
Ġein ander
Ġge werb
ĠKr iminal
Ġdazuge hÃ¶ren
ĠO fen
red its
ason ic
Ġange wendet
Ġpublic ations
bre m
Ġsum mar
Ġgen re
On ly
ĠKomp lex
fÃ¤h igen
ĠRicht linien
p y
ĠBundes republik
Ġjack et
dep th
ĠComp uters
ĠLaut sprecher
ĠC amer
Ġrepla cing
ĠEinsch Ã¤tzung
Ġkombin ieren
Ġver tre
Fra u
uert o
Ġsymp ath
Z iel
ĠBo ys
ĠFerien haus
Ġb udge
Ġmem orable
ĠGeb Ã¼hr
ĠIns ider
ĠPlay ers
ĠFlÃ¼ ge
K lasse
aus gabe
igen en
minister in
jo ys
lin er
ĠIndustr ies
Ġbe inahe
Ġgen ehm
bl enden
Ġtyp ischen
ĠPhil ip
ĠTro ck
nehm enden
Ġhinzu gefÃ¼gt
Ġlab our
re view
Ġcost ly
ĠCom ic
ĠN an
ĠRecher che
F I
ĠvielfÃ¤l tig
ĠverstÃ¤nd lich
Ġ2 10
Ġrad iation
Ġsyn chron
Ġtremend ous
Ġd ict
la cement
Ġover look
ĠHel den
ĠWal zen
ĠThanks giving
Ġpaint ings
H ard
w Ã¤sche
arch iv
Ġthro wn
ĠStatis tiken
! âĢĿ
ĠR ass
ĠJ Ã¶rg
Auf grund
Ġinsp iring
Ġch amber
Ġbeant ragen
g ow
ĠTr ick
ĠberÃ¼hm ten
ĠBenz in
A p
C olle
Ġ Å
Ġle an
Ġbetre ut
ĠergÃ¤n zen
Ã¼ste t
f irst
il dern
ĠErgÃ¤nz ung
B us
Ġcons ervation
Ġmar kt
Ġkonzentr iert
Ġseek s
gere chte
ĠgrÃ¼ ne
Ġreward ing
Ġh emp
Ġv ent
ĠB ischof
ĠVol ume
Ġintens ity
Ġkomp letten
s um
it ely
ĠA w
bet ten
r ungen
Ġd or
ĠEl f
mark e
Ġmotiv ated
Ger ade
Ġstr ive
rif fe
wechs lung
Ã¼ch tig
Ġe chter
op Ã¤d
Ġab gesehen
Ġform ats
Ġpropos als
Ġc ups
T it
Ġp unch
ard less
Nach richten
Ġgradu ated
ĠSever al
Ġev ident
Ġcamp ing
K K
Z ug
ĠP otter
ĠR d
ĠD H
Ġaus gebaut
OL L
Ġf ails
op tionen
Ġarbeit ete
bezogen e
ĠForder ung
d ass
Ġdisc our
ĠUhr zeit
Inst itut
ĠHoll and
ĠKundens ervice
ac cess
Ġsupp ose
ĠCo le
Ġl ately
Ge b
Rep ort
ĠProgn ose
Ġa rab
ch tet
ĠS yl
ĠW iki
Ġsh oe
ĠWahr nehmung
or r
ĠM ig
im o
ĠGegen stand
ĠPlay Station
ĠLo an
odaf one
ĠUl tr
k issen
ge ist
Ġwas chen
Ġanticip ated
f irma
Ġre actions
ĠN ieren
Ġeing ere
ĠCon vention
igr ant
irat et
ul ent
Ġspekt ak
R ich
Ġtrans mit
Ġkl im
ĠApothe ke
ĠMit teilung
Ġmag ical
Â ¤
Ġcon d
ĠDu isburg
Ġemb race
ĠGe ige
ĠCor on
ho fen
Ġpull ing
Ġtox ic
u itive
ĠHar vard
ĠIntelligen z
Ġd ub
Ġg uns
ĠMex ican
Ġmolec ular
Ġgegen wÃ¤r
ĠUl rich
Ġlab els
ĠClin ical
Ġkontroll ieren
ĠPerspek tiven
E ben
Ã¼ ben
Ġwir ksam
Ġexpl icit
Produ ct
b usiness
ĠSt orm
Ġver raten
ern et
be zir
zuf inden
Ã¤cht nis
Ġsubt le
Ġcolle cting
ĠTest ament
Ġang ry
umn i
ĠArzneimit tel
Ġaccompan ied
Ġer fassen
Z udem
Ġh os
Ġconsult ant
Ġaest hetic
k art
Ġol ive
Ġerkenn bar
sp arte
Ġnet te
Ġglass es
ĠDeck el
âĢ ²
ĠAn regungen
Ġnation wide
ĠgefÃ¼ llt
Ġv ir
ock ets
Ġorgan ize
Ġem bar
Ġbel oved
Â £
ĠDise ase
ĠHe avy
Ġattrib utes
ĠJ ury
ĠZ unÃ¤chst
Man ager
Ġk ne
ad der
Ġr ats
ĠJ as
Ġa qu
sch Ã¤den
SP D
Ġpromo tions
le um
art ment
Ã¶ch er
ĠGer hard
E urope
L ong
o is
ag ert
lin iken
isten cy
ari at
ĠDist anz
Ġdiagn osed
Ġbran ches
ir gend
ĠFer r
ĠOver view
ĠZ ir
Ġsch weiz
Ġkn ife
ĠSpe aker
Ġeng lisch
ĠBro ther
ĠVoll zeit
Ġsel ts
geh ende
ĠK anzler
ĠAus wertung
an ischen
ĠY ahoo
Ġdarauf hin
ĠRÃ¤ tsel
o fer
sh aus
Ġdev oted
Ñģ ÑĤ
ĠOpp ort
c ookie
te ms
ĠL P
Ġha ut
Ġsp ielautomaten
ĠWe ile
Ġbet a
ĠPh arma
ĠNahr ung
f isch
Ġm os
ĠTe ller
St G
Ġclean er
ir y
Ġbes etzt
ĠÂ Ń
IS H
stand ard
yn th
stre it
Ġchair man
-------- --------
P rom
tra cht
ĠAb schied
oun ced
Ġâ ĺ
ĠZahl ungen
laim er
ĠZw eiten
Ġtit led
ĠBras ilien
Ã¤ gen
ĠN agel
Ġhonest ly
Ġm asks
ĠK ai
Ġre b
ĠVer ordnung
Ġrest oration
ĠRec overy
Ġattrak tive
Ġpre view
Ġbook ed
Wh ich
Ġblock ed
ĠLÃ¶ wen
ĠFranc is
p endence
ĠV iv
Ġ197 2
dis ziplin
Ġzusammenge fasst
Ġeig entlichen
Ġconver ted
Ġdon ations
Ġaud iences
Ġcomplex ity
ĠW esent
op es
Arbeit s
g ungen
sp annen
Ġmer kt
Ġincorpor ated
Ġt ale
ist ance
Ġsp ouse
sp ring
Ġkey words
Ġswe at
gew and
Ġsugges tion
Ġe ars
ĠG lob
Ġhaz ard
Ġge beten
ĠVers orgungs
ĠGed uld
Ġsons tigen
Ġkor rig
ĠS lo
ĠC any
schl iess
ĠvielfÃ¤l tige
Ġa rom
it utes
Ġbe z
ĠV M
man gel
Ġarg uments
ĠgewÃ¤hr t
ĠBul gar
G G
ĠAb u
s ack
Ġc rop
ĠCro wn
m utter
bel ast
h attan
ĠCl ose
ĠGrund s
Ġview ers
Ġrespons ive
be ge
ĠBÃ¼ hnen
ĠE g
um ble
geb ieten
unsch weig
ĠHD MI
ĠMay or
ĠDownload s
Ġinn oc
ĠP ure
ĠCh icken
Ġcompar able
Ġbound aries
ĠKonsequ enzen
L iefer
ĠFor en
Ġwel coming
ĠWert sch
ĠJ aw
Ġtun e
ĠSport ler
k andid
Ġâ Ļ
Ġattemp ted
Ġdemoc racy
a ire
c asino
ĠPots dam
L inks
c as
ĠWÃ¼r de
ĠB orn
ĠSte ine
Ġintern ship
ĠAlltag s
gl isch
ĠCre me
Ġc ub
ĠSa al
App s
ĠU E
Ġtra ils
Ġrep ro
Ġerst klass
Ġauf springen
Ġautom otive
M AN
ĠC SU
Ġgener ating
Ġgesellschaft lichen
ĠS IM
ir ge
ĠNe vada
ĠAd apter
ĠMus keln
Ġchampion ship
sche f
Ġforg otten
ĠSt ufen
iv als
ĠVer fahrens
Ġass ists
ling er
nes ium
Ġnutri ents
Ġen joys
ĠTher apy
Ke ep
c tively
Ġun re
ĠAus rÃ¼stung
Ġelect ronics
Ġfla vors
Ġp ione
ver eins
Ġbless ed
icy cle
ĠSchokol ade
ĠK upfer
gen ossen
Ġeing eh
ĠEff izienz
mach ung
ĠProcess ing
ĠH allen
CD U
ĠC itiz
ĠCh aos
Ġpain ful
ĠHin zu
ĠRepublic ans
Ġphr ases
V ideos
e ven
c reme
ĠG ere
ĠL AN
ub le
Ġ12 00
ĠtÃ¤glich e
Ġcritic ism
n Ã¤chst
Ġcom ic
ĠDeb atte
A tt
ĠB apt
ĠV inyl
ag ine
Ġspe eds
ĠSchreibt isch
á »
ĠL etter
Ġsh ame
ĠBes timmung
Ġleit et
re du
Ġwar s
ĠLe id
and in
Sch ule
Ad v
ĠRein igungs
ĠFÃ¼ ll
ĠjÃ¼ng sten
ĠM ask
Ġr aten
Ġver mehr
ĠRe iz
ĠVer handlungen
ĠCont roller
hel fen
y cle
Ġexhib it
Ġ19 30
Ġalle g
Ġlus tig
ĠL aufen
ĠRe hab
ĠElect ronic
P RO
Ġbe fre
Re cht
Ġtex ts
ĠT astatur
tic es
ĠFerien wohnung
P ers
j ong
u ce
ĠE ST
Ġsepar ated
Ġpen et
ĠEin mal
ĠHe y
ĠKr atz
Ġrom ance
[...]
